{
  "version": "1.0",
  "truncation": null,
  "padding": null,
  "added_tokens": [
    {
      "id": 0,
      "content": "[UNK]",
      "single_word": false,
      "lstrip": false,
      "rstrip": false,
      "normalized": false,
      "special": true
    },
    {
      "id": 1,
      "content": "[CLS]",
      "single_word": false,
      "lstrip": false,
      "rstrip": false,
      "normalized": false,
      "special": true
    },
    {
      "id": 2,
      "content": "[SEP]",
      "single_word": false,
      "lstrip": false,
      "rstrip": false,
      "normalized": false,
      "special": true
    },
    {
      "id": 3,
      "content": "[PAD]",
      "single_word": false,
      "lstrip": false,
      "rstrip": false,
      "normalized": false,
      "special": true
    },
    {
      "id": 4,
      "content": "[MASK]",
      "single_word": false,
      "lstrip": false,
      "rstrip": false,
      "normalized": false,
      "special": true
    }
  ],
  "normalizer": null,
  "pre_tokenizer": null,
  "post_processor": null,
  "decoder": null,
  "model": {
    "type": "BPE",
    "dropout": null,
    "unk_token": "[UNK]",
    "continuing_subword_prefix": null,
    "end_of_word_suffix": null,
    "fuse_unk": false,
    "byte_fallback": false,
    "ignore_merges": false,
    "vocab": {
      "[UNK]": 0,
      "[CLS]": 1,
      "[SEP]": 2,
      "[PAD]": 3,
      "[MASK]": 4,
      " ": 5,
      "0": 6,
      "1": 7,
      "2": 8,
      "3": 9,
      "4": 10,
      "5": 11,
      "6": 12,
      "7": 13,
      "8": 14,
      "9": 15,
      "_": 16,
      "b": 17,
      "c": 18,
      "e": 19,
      "g": 20,
      "o": 21,
      "s": 22,
      " c": 23,
      " c_": 24,
      " c_1": 25,
      " s": 26,
      "eg": 27,
      " seg": 28,
      " seg_": 29,
      "2 c_": 30,
      "4 c_": 31,
      "5 c_": 32,
      "3 c_": 33,
      "6 c_": 34,
      "7 c_": 35,
      "0 c_": 36,
      "1 seg_": 37,
      " c_11 seg_": 38,
      " c_10": 39,
      " c_1 c_": 40,
      " c_10 seg_": 41,
      "0 c_2 c_": 42,
      "7 c_9": 43,
      "4 c_6 c_": 44,
      "3 c_5 c_": 45,
      "0 c_1 c_": 46,
      "8 c_10 seg_": 47,
      "4 c_5 c_": 48,
      "9 c_11 seg_": 49,
      "8 c_": 50,
      "7 c_9 c_11 seg_": 51,
      " c_10 c_11 seg_": 52,
      " c_1 c_2 c_": 53,
      "1 c_": 54,
      " c_1 c_3 c_": 55,
      "7 c_8 c_10 seg_": 56,
      "7 c_9 c_10 seg_": 57,
      "8 c_9 c_11 seg_": 58,
      "0 c_2 c_4 c_5 c_": 59,
      "8 c_10 c_11 seg_": 60,
      "7 c_9 seg_": 61,
      "0 c_2 c_3 c_5 c_": 62,
      "3 c_5 c_6 c_": 63,
      "9 seg_": 64,
      "4 c_6 c_7 c_9 c_11 seg_": 65,
      "7 c_10 seg_": 66,
      "8 seg_": 67,
      "8 c_11 seg_": 68,
      "0 c_2 c_4 c_": 69,
      "4 c_6 c_8 c_9 c_11 seg_": 70,
      "0 c_2 c_5 c_": 71,
      "0 c_1 c_2 c_": 72,
      "7 c_11 seg_": 73,
      "3 c_5 c_7 c_8 c_10 seg_": 74,
      "9 c_10 seg_": 75,
      "0 c_1 c_3 c_": 76,
      "4 c_6 c_9 c_11 seg_": 77,
      "3 c_5 c_6 c_8 c_10 seg_": 78,
      "8 c_9 seg_": 79,
      "0 c_2 c_3 c_": 80,
      " c_1 c_3 c_4 c_6 c_": 81,
      "0 c_1 c_3 c_5 c_": 82,
      "6 c_8 c_10 c_11 seg_": 83,
      "0 c_2 c_4 c_7 c_9 c_11 seg_": 84,
      "0 c_3 c_": 85,
      "0 c_4 c_5 c_": 86,
      "0 c_3 c_5 c_7 c_8 c_10 seg_": 87,
      "0 c_2 c_4 c_5 c_7 c_9 seg_": 88,
      "4 c_5 c_6 c_": 89,
      "5 c_6 c_": 90,
      "9 c_10 c_11 seg_": 91,
      "2 c_4 c_6 c_7 c_9 c_11 seg_": 92,
      "7 c_8 seg_": 93,
      "0 c_2 c_5 c_7 c_9 c_10 seg_": 94,
      "0 c_2 c_3 c_5 c_7 c_10 seg_": 95,
      "7 seg_": 96,
      "2 c_3 c_": 97,
      " c_1 c_2 c_4 c_6 c_9 c_11 seg_": 98,
      "0 c_3 c_5 c_": 99,
      "0 c_1 c_3 c_5 c_8 c_10 seg_": 100,
      "0 c_1 c_2 c_3 c_": 101,
      "7 c_8 c_": 102,
      " c_1 c_2 c_4 c_6 c_": 103,
      "4 c_1 c_": 104,
      "3 c_1 c_": 105,
      "5 c_1 c_": 106,
      "6 c_1 c_": 107,
      "2 c_1 c_": 108,
      "7 c_1 c_": 109,
      "1 c_1 c_": 110,
      "0 c_5 c_": 111,
      "0 c_2 c_3 c_5 c_7 c_8 c_10 seg_": 112,
      "4 c_8 c_9 c_11 seg_": 113,
      "6 c_10 c_11 seg_": 114,
      "0 c_2 c_4 c_6 c_7 c_9 c_11 seg_": 115,
      "0 c_2 c_4 c_5 c_7 c_9 c_11 seg_": 116,
      "6 c_10 seg_": 117,
      "0 c_2 c_3 c_5 c_7 c_9 c_10 seg_": 118,
      "7 c_8 c_9 c_10 c_11 seg_": 119,
      " c_1 c_3 c_6 c_8 c_10 c_11 seg_": 120,
      "3 c_5 c_6 c_8 c_10 c_11 seg_": 121,
      "0 c_1 c_2 c_3 c_4 c_5 c_6 c_": 122,
      "0 c_1 c_2 c_3 c_4 c_5 c_6 c_7 c_8 c_9 c_10 c_11 seg_": 123,
      "6 c_11 seg_": 124,
      "0 c_2 c_4 c_5 c_7 c_9 c_10 seg_": 125,
      "5 c_10 seg_": 126,
      "0 c_1 c_3 c_5 c_6 c_8 c_10 seg_": 127,
      " c_1 c_3 c_4 c_6 c_8 c_11 seg_": 128,
      " c_1 c_2 c_6 c_": 129,
      "4 c_6 c_8 c_11 seg_": 130,
      "2 c_4 c_": 131,
      "0 c_4 c_": 132,
      " c_1 c_3 c_4 c_": 133,
      " c_1 c_2 c_4 c_": 134,
      "0 c_1 c_5 c_": 135,
      " c_1 c_3 c_6 c_": 136,
      " c_1 c_2 c_4 c_6 c_7 c_9 c_11 seg_": 137,
      "7 c_10 c_11 seg_": 138,
      "0 c_1 c_3 c_5 c_7 c_8 c_10 seg_": 139,
      "0 c_2 c_6 c_": 140,
      " c_1 c_3 c_4 c_6 c_8 c_9 c_11 seg_": 141,
      "2 c_3 c_5 c_": 142,
      "7 c_8 c_11 seg_": 143,
      "4 c_6 c_7 c_11 seg_": 144,
      "2 c_4 c_5 c_": 145,
      "2 c_6 c_": 146,
      " c_1 c_2 c_4 c_6 c_8 c_9 c_11 seg_": 147,
      " c_1 c_3 c_4 c_6 c_8 c_10 c_11 seg_": 148,
      "2 c_5 c_": 149,
      "7 c_8 c_10 c_11 seg_": 150,
      "8 c_9 c_10 seg_": 151,
      "3 c_5 c_6 c_8 seg_": 152,
      "5 c_6 c_8 c_10 seg_": 153,
      "0 c_2 c_4 c_7 c_9 seg_": 154,
      "0 c_2 c_4 c_7 c_11 seg_": 155,
      " c_1 c_2 c_3 c_": 156,
      "2 c_4 c_6 c_": 157,
      "0 c_2 c_4 c_5 c_7 c_11 seg_": 158,
      "0 c_4 c_5 c_7 c_9 c_10 seg_": 159,
      "0 c_1 c_4 c_5 c_": 160,
      "7 c_8 c_9 seg_": 161,
      "0 c_4 c_5 c_7 c_9 seg_": 162,
      "4 c_6 c_8 c_9 seg_": 163,
      "0 c_3 c_7 c_8 c_10 seg_": 164,
      "0 c_2 c_5 c_9 c_10 seg_": 165,
      "7 c_9 c_10 c_11 seg_": 166,
      "3 c_5 c_8 c_10 seg_": 167,
      "0 c_1 c_3 c_6 c_": 168,
      "0 c_3 c_5 c_8 c_10 seg_": 169,
      "0 c_2 c_6 c_7 c_9 c_11 seg_": 170,
      "0 c_2 c_5 c_7 c_9 seg_": 171,
      "2 c_3 c_5 c_7 c_8 c_10 seg_": 172,
      "0 c_1 c_3 c_7 c_8 c_10 seg_": 173,
      "0 c_2 c_5 c_7 c_10 seg_": 174,
      "0 c_2 c_4 c_6 c_7 c_9 c_11 seg_1 c_": 175,
      " c_1 c_2 c_4 c_6 c_7 c_9 seg_": 176,
      "4 c_3 c_": 177,
      "3 c_3 c_": 178,
      "6 c_3 c_": 179,
      "7 c_3 c_": 180,
      "5 c_3 c_": 181,
      "1 c_3 c_": 182,
      "7 c_8 c_9 c_11 seg_": 183,
      "0 c_3 c_4 c_": 184,
      " c_1 c_2 c_4 c_5 c_": 185,
      "0 c_2 c_4 c_5 c_9 c_11 seg_": 186,
      "6 c_8 c_9 c_11 seg_": 187,
      "2 c_4 c_6 c_9 c_11 seg_": 188,
      "0 c_1 c_3 c_4 c_": 189,
      "2 c_4 c_7 c_9 c_11 seg_": 190,
      "0 c_4 c_6 c_7 c_9 c_11 seg_": 191,
      "2 c_3 c_5 c_7 c_10 seg_": 192,
      "0 c_2 c_3 c_5 c_9 c_10 seg_": 193,
      "5 c_6 c_8 c_10 c_11 seg_": 194,
      "2 c_6 c_7 c_9 c_11 seg_": 195,
      "0 c_2 c_3 c_6 c_": 196,
      "0 c_2 c_4 c_9 c_11 seg_": 197,
      "0 c_2 c_4 c_7 c_9 c_11 seg_1 c_": 198,
      "7 c_9 c_10 seg_7 c_": 199,
      "7 c_9 c_10 seg_6 c_": 200,
      "7 c_9 c_10 seg_5 c_": 201,
      "7 c_9 c_10 seg_4 c_": 202,
      "7 c_9 c_10 seg_3 c_": 203,
      "0 c_2 c_4 c_5 c_9 seg_": 204,
      "0 c_1 c_4 c_": 205,
      "7 c_9 c_10 seg_2 c_": 206,
      "0 c_2 c_3 c_5 c_7 c_8 seg_": 207,
      " c_1 c_2 c_4 c_6 c_9 seg_": 208,
      "0 c_1 c_3 c_5 c_6 c_8 seg_": 209,
      "0 c_2 c_4 c_6 c_": 210,
      "0 c_1 c_3 c_4 c_6 c_": 211,
      "0 c_3 c_5 c_7 c_10 seg_": 212,
      "3 c_5 c_6 c_10 seg_": 213,
      "0 c_5 c_7 c_8 c_10 seg_": 214,
      " c_1 c_2 c_6 c_8 c_9 c_11 seg_": 215,
      "0 c_4 c_7 c_9 c_11 seg_": 216,
      " c_1 c_2 c_5 c_": 217,
      "0 c_2 c_3 c_7 c_10 seg_": 218,
      "0 c_1 c_3 c_5 c_8 seg_": 219,
      "2 c_4 c_6 c_7 c_9 c_11 seg_3 c_": 220,
      "0 c_0 c_2 c_4 c_7 c_9 c_11 seg_1 c_": 221,
      "2 c_0 c_2 c_4 c_7 c_9 c_11 seg_": 222,
      "4 c_0 c_2 c_4 c_7 c_9 c_11 seg_": 223,
      "7 c_0 c_2 c_4 c_7 c_9 c_11 seg_": 224,
      "6 c_0 c_2 c_4 c_7 c_9 c_11 seg_": 225,
      "3 c_0 c_2 c_4 c_7 c_9 c_11 seg_": 226,
      "5 c_0 c_2 c_4 c_7 c_9 c_11 seg_": 227,
      "2 c_3 c_6 c_": 228,
      "0 c_1 c_5 c_6 c_": 229,
      "0 c_0 c_2 c_4 c_7 c_9 c_11 seg_1 c_0 c_2 c_4 c_7 c_9 c_11 seg_": 230,
      "4 c_0 c_2 c_4 c_7 c_9 c_11 seg_5 c_0 c_2 c_4 c_7 c_9 c_11 seg_": 231,
      "6 c_0 c_2 c_4 c_7 c_9 c_11 seg_7 c_0 c_2 c_4 c_7 c_9 c_11 seg_": 232,
      "2 c_0 c_2 c_4 c_7 c_9 c_11 seg_3 c_0 c_2 c_4 c_7 c_9 c_11 seg_": 233,
      "0 c_1 c_2 c_4 c_": 234,
      "2 c_0 c_2 c_4 c_7 c_9 c_11 seg_3 c_0 c_2 c_4 c_7 c_9 c_11 seg_4 c_0 c_2 c_4 c_7 c_9 c_11 seg_5 c_0 c_2 c_4 c_7 c_9 c_11 seg_": 235,
      "6 c_0 c_2 c_4 c_7 c_9 c_11 seg_7 c_0 c_2 c_4 c_7 c_9 c_11 seg_0 c_0 c_2 c_4 c_7 c_9 c_11 seg_1 c_0 c_2 c_4 c_7 c_9 c_11 seg_": 236,
      "0 c_1 c_2 c_5 c_": 237,
      "0 c_3 c_5 c_7 c_8 c_10 seg_1 c_": 238,
      "0 c_1 c_2 c_4 c_5 c_": 239,
      "0 c_2 c_4 c_5 c_7 seg_": 240,
      "0 c_1 c_3 c_5 c_6 c_10 seg_": 241,
      "0 c_2 c_4 c_5 c_7 c_9 seg_1 c_": 242,
      " c_1 c_3 c_6 c_8 c_11 seg_": 243,
      "6 c_0 c_2 c_4 c_7 c_9 c_11 seg_7 c_0 c_2 c_4 c_7 c_9 c_11 seg_0 c_0 c_2 c_4 c_7 c_9 c_11 seg_1 c_0 c_2 c_4 c_7 c_9 c_11 seg_2 c_0 c_2 c_4 c_7 c_9 c_11 seg_3 c_0 c_2 c_4 c_7 c_9 c_11 seg_4 c_0 c_2 c_4 c_7 c_9 c_11 seg_5 c_0 c_2 c_4 c_7 c_9 c_11 seg_": 244,
      "0 c_2 c_7 c_9 c_11 seg_": 245,
      "0 c_2 c_3 c_5 c_7 c_10 seg_1 c_": 246,
      "4 c_2 c_4 c_6 c_7 c_9 c_11 seg_": 247,
      "6 c_2 c_4 c_6 c_7 c_9 c_11 seg_": 248,
      "5 c_2 c_4 c_6 c_7 c_9 c_11 seg_": 249,
      "7 c_2 c_4 c_6 c_7 c_9 c_11 seg_": 250,
      "2 c_4 c_6 c_7 c_11 seg_": 251,
      "2 c_2 c_4 c_6 c_7 c_9 c_11 seg_3 c_": 252,
      "0 c_2 c_3 c_4 c_": 253,
      " c_1 c_2 c_4 c_8 c_9 c_11 seg_": 254,
      "0 c_2 c_4 c_6 c_7 c_9 c_11 seg_1 c_2 c_4 c_6 c_7 c_9 c_11 seg_": 255,
      "5 c_2 c_4 c_6 c_7 c_9 c_11 seg_6 c_2 c_4 c_6 c_7 c_9 c_11 seg_": 256,
      "2 c_4 c_6 c_7 c_9 c_11 seg_4 c_2 c_4 c_6 c_7 c_9 c_11 seg_": 257,
      "0 c_2 c_5 c_7 c_9 c_10 seg_1 c_": 258,
      "0 c_1 c_5 c_7 c_8 c_10 seg_": 259,
      "5 c_2 c_4 c_6 c_7 c_9 c_11 seg_6 c_2 c_4 c_6 c_7 c_9 c_11 seg_7 c_2 c_4 c_6 c_7 c_9 c_11 seg_": 260,
      "2 c_2 c_4 c_6 c_7 c_9 c_11 seg_3 c_2 c_4 c_6 c_7 c_9 c_11 seg_4 c_2 c_4 c_6 c_7 c_9 c_11 seg_": 261,
      " c_1 c_3 c_6 c_8 c_10 seg_": 262,
      "0 c_2 c_3 c_5 c_7 seg_": 263,
      "6 c_0 c_2 c_4 c_7 c_9 c_11 seg_7 c_0 c_2 c_4 c_7 c_9 c_11 seg_0 c_0 c_2 c_4 c_7 c_9 c_11 seg_1 c_0 c_2 c_4 c_7 c_9 c_11 seg_2 c_0 c_2 c_4 c_7 c_9 c_11 seg_3 c_0 c_2 c_4 c_7 c_9 c_11 seg_4 c_0 c_2 c_4 c_7 c_9 c_11 seg_5 c_0 c_2 c_4 c_7 c_9 c_11 seg_6 c_0 c_2 c_4 c_7 c_9 c_11 seg_7 c_0 c_2 c_4 c_7 c_9 c_11 seg_0 c_0 c_2 c_4 c_7 c_9 c_11 seg_1 c_0 c_2 c_4 c_7 c_9 c_11 seg_2 c_0 c_2 c_4 c_7 c_9 c_11 seg_3 c_0 c_2 c_4 c_7 c_9 c_11 seg_4 c_0 c_2 c_4 c_7 c_9 c_11 seg_5 c_0 c_2 c_4 c_7 c_9 c_11 seg_": 264,
      "7 c_9 c_10 seg_1 c_": 265,
      "4 c_0 c_3 c_5 c_7 c_8 c_10 seg_": 266,
      "5 c_0 c_3 c_5 c_7 c_8 c_10 seg_": 267,
      "0 c_2 c_4 c_6 c_7 c_9 c_11 seg_1 c_2 c_4 c_6 c_7 c_9 c_11 seg_2 c_2 c_4 c_6 c_7 c_9 c_11 seg_3 c_2 c_4 c_6 c_7 c_9 c_11 seg_4 c_2 c_4 c_6 c_7 c_9 c_11 seg_": 268,
      "3 c_0 c_3 c_5 c_7 c_8 c_10 seg_": 269,
      "5 c_0 c_3 c_5 c_7 c_8 c_10 seg_6 c_": 270,
      "2 c_0 c_3 c_5 c_7 c_8 c_10 seg_": 271,
      "7 c_0 c_3 c_5 c_7 c_8 c_10 seg_": 272,
      "0 c_0 c_3 c_5 c_7 c_8 c_10 seg_1 c_": 273,
      " c_1 c_3 c_6 c_10 c_11 seg_": 274,
      "4 c_6 c_8 c_9 c_11 seg_1": 275,
      "7 c_9 seg_6 c_": 276,
      "7 c_9 seg_7 c_": 277,
      "7 c_9 seg_3 c_": 278,
      "7 c_9 seg_5 c_": 279,
      "7 c_9 seg_4 c_": 280,
      "5 c_0 c_3 c_5 c_7 c_8 c_10 seg_6 c_0 c_3 c_5 c_7 c_8 c_10 seg_": 281,
      "3 c_0 c_3 c_5 c_7 c_8 c_10 seg_4 c_0 c_3 c_5 c_7 c_8 c_10 seg_": 282,
      "0 c_3 c_5 c_7 c_8 c_10 seg_2 c_0 c_3 c_5 c_7 c_8 c_10 seg_": 283,
      "7 c_0 c_3 c_5 c_7 c_8 c_10 seg_0 c_0 c_3 c_5 c_7 c_8 c_10 seg_1 c_": 284,
      "7 c_9 seg_2 c_": 285,
      "0 c_3 c_4 c_5 c_": 286,
      " c_1 c_3 c_4 c_6 c_8 seg_": 287,
      "0 c_2 c_4 c_6 c_7 c_9 c_11 seg_1 c_2 c_4 c_6 c_7 c_9 c_11 seg_2 c_2 c_4 c_6 c_7 c_9 c_11 seg_3 c_2 c_4 c_6 c_7 c_9 c_11 seg_4 c_2 c_4 c_6 c_7 c_9 c_11 seg_5 c_2 c_4 c_6 c_7 c_9 c_11 seg_6 c_2 c_4 c_6 c_7 c_9 c_11 seg_7 c_2 c_4 c_6 c_7 c_9 c_11 seg_": 288,
      "2 c_0 c_2 c_4 c_5 c_7 c_9 seg_": 289,
      "6 c_0 c_2 c_4 c_5 c_7 c_9 seg_": 290,
      "5 c_0 c_2 c_4 c_5 c_7 c_9 seg_": 291,
      "4 c_0 c_2 c_4 c_5 c_7 c_9 seg_": 292,
      "0 c_0 c_2 c_4 c_5 c_7 c_9 seg_1 c_": 293,
      "2 c_0 c_2 c_4 c_5 c_7 c_9 seg_3 c_": 294,
      "6 c_0 c_2 c_4 c_5 c_7 c_9 seg_7 c_": 295,
      "4 c_6 c_11 seg_": 296,
      "0 c_3 c_5 c_7 c_8 c_10 seg_2 c_0 c_3 c_5 c_7 c_8 c_10 seg_3 c_0 c_3 c_5 c_7 c_8 c_10 seg_4 c_0 c_3 c_5 c_7 c_8 c_10 seg_": 297,
      "5 c_0 c_3 c_5 c_7 c_8 c_10 seg_6 c_0 c_3 c_5 c_7 c_8 c_10 seg_7 c_0 c_3 c_5 c_7 c_8 c_10 seg_0 c_0 c_3 c_5 c_7 c_8 c_10 seg_1 c_": 298,
      "6 c_8 c_11 seg_": 299,
      "0 c_3 c_5 c_7 c_8 seg_": 300,
      "4 c_6 c_9 c_11 seg_1": 301,
      "0 c_2 c_4 c_5 c_7 c_9 seg_4 c_0 c_2 c_4 c_5 c_7 c_9 seg_": 302,
      "0 c_0 c_2 c_4 c_5 c_7 c_9 seg_1 c_0 c_2 c_4 c_5 c_7 c_9 seg_": 303,
      "6 c_0 c_2 c_4 c_5 c_7 c_9 seg_7 c_0 c_2 c_4 c_5 c_7 c_9 seg_": 304,
      "0 c_2 c_4 c_5 c_7 c_9 seg_4 c_0 c_2 c_4 c_5 c_7 c_9 seg_5 c_0 c_2 c_4 c_5 c_7 c_9 seg_": 305,
      " c_1 c_2 c_5 c_6 c_": 306,
      " c_1 c_2 c_4 c_6 c_7 c_11 seg_": 307,
      "0 c_0 c_2 c_4 c_5 c_7 c_9 seg_1 c_0 c_2 c_4 c_5 c_7 c_9 seg_2 c_0 c_2 c_4 c_5 c_7 c_9 seg_3 c_": 308,
      " c_1 c_3 c_4 c_6 c_8 c_9 seg_": 309,
      "5 c_0 c_3 c_5 c_7 c_8 c_10 seg_6 c_0 c_3 c_5 c_7 c_8 c_10 seg_7 c_0 c_3 c_5 c_7 c_8 c_10 seg_0 c_0 c_3 c_5 c_7 c_8 c_10 seg_1 c_0 c_3 c_5 c_7 c_8 c_10 seg_2 c_0 c_3 c_5 c_7 c_8 c_10 seg_3 c_0 c_3 c_5 c_7 c_8 c_10 seg_4 c_0 c_3 c_5 c_7 c_8 c_10 seg_": 310,
      "0 c_2 c_4 c_6 c_7 c_9 c_11 seg_1 c_2 c_4 c_6 c_7 c_9 c_11 seg_2 c_2 c_4 c_6 c_7 c_9 c_11 seg_3 c_2 c_4 c_6 c_7 c_9 c_11 seg_4 c_2 c_4 c_6 c_7 c_9 c_11 seg_5 c_2 c_4 c_6 c_7 c_9 c_11 seg_6 c_2 c_4 c_6 c_7 c_9 c_11 seg_7 c_2 c_4 c_6 c_7 c_9 c_11 seg_0 c_2 c_4 c_6 c_7 c_9 c_11 seg_1 c_2 c_4 c_6 c_7 c_9 c_11 seg_2 c_2 c_4 c_6 c_7 c_9 c_11 seg_3 c_2 c_4 c_6 c_7 c_9 c_11 seg_4 c_2 c_4 c_6 c_7 c_9 c_11 seg_5 c_2 c_4 c_6 c_7 c_9 c_11 seg_6 c_2 c_4 c_6 c_7 c_9 c_11 seg_7 c_2 c_4 c_6 c_7 c_9 c_11 seg_": 311,
      "0 c_1 c_5 c_8 c_10 seg_": 312,
      "0 c_2 c_4 c_5 c_7 c_9 seg_4 c_0 c_2 c_4 c_5 c_7 c_9 seg_5 c_0 c_2 c_4 c_5 c_7 c_9 seg_6 c_0 c_2 c_4 c_5 c_7 c_9 seg_7 c_0 c_2 c_4 c_5 c_7 c_9 seg_": 313,
      "0 c_2 c_3 c_5 c_10 seg_": 314,
      "6 c_1 c_2 c_4 c_6 c_9 c_11 seg_": 315,
      "7 c_1 c_2 c_4 c_6 c_9 c_11 seg_": 316,
      "5 c_1 c_2 c_4 c_6 c_9 c_11 seg_": 317,
      "3 c_1 c_2 c_4 c_6 c_9 c_11 seg_": 318,
      "4 c_1 c_2 c_4 c_6 c_9 c_11 seg_": 319,
      "2 c_1 c_2 c_4 c_6 c_9 c_11 seg_": 320,
      "0 c_1 c_2 c_4 c_6 c_9 c_11 seg_1": 321,
      "0 c_2 c_4 c_5 c_9 c_10 seg_": 322,
      "0 c_2 c_3 c_5 c_7 c_8 c_10 seg_1 c_": 323,
      "6 c_1 c_2 c_4 c_6 c_9 c_11 seg_7 c_1 c_2 c_4 c_6 c_9 c_11 seg_": 324,
      "0 c_1 c_2 c_4 c_6 c_": 325,
      "3 c_1 c_2 c_4 c_6 c_9 c_11 seg_4 c_1 c_2 c_4 c_6 c_9 c_11 seg_": 326,
      "0 c_1 c_2 c_4 c_6 c_9 c_11 seg_1 c_1 c_2 c_4 c_6 c_9 c_11 seg_": 327,
      "0 c_2 c_5 c_7 c_9 c_10 seg_3 c_": 328,
      "0 c_2 c_5 c_7 c_9 c_10 seg_6 c_": 329,
      "0 c_2 c_5 c_7 c_9 c_10 seg_7 c_": 330,
      "0 c_0 c_2 c_5 c_7 c_9 c_10 seg_1 c_": 331,
      "0 c_2 c_5 c_7 c_9 c_10 seg_2 c_": 332,
      "0 c_2 c_5 c_7 c_9 c_10 seg_4 c_": 333,
      "0 c_2 c_5 c_7 c_9 c_10 seg_5 c_": 334,
      "0 c_1 c_3 c_8 c_10 seg_": 335,
      "0 c_2 c_4 c_5 c_7 c_9 seg_4 c_0 c_2 c_4 c_5 c_7 c_9 seg_5 c_0 c_2 c_4 c_5 c_7 c_9 seg_6 c_0 c_2 c_4 c_5 c_7 c_9 seg_7 c_0 c_2 c_4 c_5 c_7 c_9 seg_0 c_0 c_2 c_4 c_5 c_7 c_9 seg_1 c_0 c_2 c_4 c_5 c_7 c_9 seg_2 c_0 c_2 c_4 c_5 c_7 c_9 seg_3 c_": 336,
      "3 c_1 c_2 c_4 c_6 c_9 c_11 seg_4 c_1 c_2 c_4 c_6 c_9 c_11 seg_5 c_1 c_2 c_4 c_6 c_9 c_11 seg_": 337,
      "0 c_1 c_2 c_4 c_6 c_9 c_11 seg_1 c_1 c_2 c_4 c_6 c_9 c_11 seg_2 c_1 c_2 c_4 c_6 c_9 c_11 seg_": 338,
      " c_1 c_2 c_6 c_9 c_11 seg_": 339,
      "0 c_0 c_1 c_2 c_3 c_4 c_5 c_6 c_7 c_8 c_9 c_10 c_11 seg_": 340,
      "0 c_2 c_5 c_7 c_9 c_10 seg_7 c_0 c_2 c_5 c_7 c_9 c_10 seg_": 341,
      "6 c_0 c_2 c_3 c_5 c_7 c_10 seg_": 342,
      "0 c_0 c_2 c_5 c_7 c_9 c_10 seg_1 c_0 c_2 c_5 c_7 c_9 c_10 seg_2 c_": 343,
      "4 c_0 c_2 c_3 c_5 c_7 c_10 seg_": 344,
      "0 c_2 c_5 c_7 c_9 c_10 seg_3 c_0 c_2 c_5 c_7 c_9 c_10 seg_4 c_": 345,
      "7 c_0 c_2 c_3 c_5 c_7 c_10 seg_": 346,
      "5 c_0 c_2 c_3 c_5 c_7 c_10 seg_": 347,
      "0 c_2 c_5 c_7 c_9 c_10 seg_5 c_0 c_2 c_5 c_7 c_9 c_10 seg_6 c_": 348,
      "3 c_0 c_2 c_3 c_5 c_7 c_10 seg_": 349,
      "0 c_0 c_2 c_3 c_5 c_7 c_10 seg_1 c_": 350,
      "2 c_0 c_2 c_3 c_5 c_7 c_10 seg_": 351,
      "7 c_8 c_9 c_10 seg_": 352,
      "5 c_0 c_3 c_5 c_7 c_8 c_10 seg_6 c_0 c_3 c_5 c_7 c_8 c_10 seg_7 c_0 c_3 c_5 c_7 c_8 c_10 seg_0 c_0 c_3 c_5 c_7 c_8 c_10 seg_1 c_0 c_3 c_5 c_7 c_8 c_10 seg_2 c_0 c_3 c_5 c_7 c_8 c_10 seg_3 c_0 c_3 c_5 c_7 c_8 c_10 seg_4 c_0 c_3 c_5 c_7 c_8 c_10 seg_5 c_0 c_3 c_5 c_7 c_8 c_10 seg_6 c_0 c_3 c_5 c_7 c_8 c_10 seg_7 c_0 c_3 c_5 c_7 c_8 c_10 seg_0 c_0 c_3 c_5 c_7 c_8 c_10 seg_1 c_0 c_3 c_5 c_7 c_8 c_10 seg_2 c_0 c_3 c_5 c_7 c_8 c_10 seg_3 c_0 c_3 c_5 c_7 c_8 c_10 seg_4 c_0 c_3 c_5 c_7 c_8 c_10 seg_": 353,
      "3 c_1 c_2 c_4 c_6 c_9 c_11 seg_4 c_1 c_2 c_4 c_6 c_9 c_11 seg_5 c_1 c_2 c_4 c_6 c_9 c_11 seg_6 c_1 c_2 c_4 c_6 c_9 c_11 seg_7 c_1 c_2 c_4 c_6 c_9 c_11 seg_": 354,
      "0 c_2 c_4 c_6 c_7 c_11 seg_": 355,
      "4 c_0 c_2 c_3 c_5 c_7 c_10 seg_5 c_0 c_2 c_3 c_5 c_7 c_10 seg_": 356,
      "6 c_0 c_2 c_3 c_5 c_7 c_10 seg_7 c_0 c_2 c_3 c_5 c_7 c_10 seg_": 357,
      "0 c_0 c_2 c_3 c_5 c_7 c_10 seg_1 c_0 c_2 c_3 c_5 c_7 c_10 seg_": 358,
      "2 c_0 c_2 c_3 c_5 c_7 c_10 seg_3 c_0 c_2 c_3 c_5 c_7 c_10 seg_": 359,
      "0 c_2 c_5 c_7 c_9 c_10 seg_5 c_0 c_2 c_5 c_7 c_9 c_10 seg_6 c_0 c_2 c_5 c_7 c_9 c_10 seg_7 c_0 c_2 c_5 c_7 c_9 c_10 seg_": 360,
      "0 c_0 c_2 c_5 c_7 c_9 c_10 seg_1 c_0 c_2 c_5 c_7 c_9 c_10 seg_2 c_0 c_2 c_5 c_7 c_9 c_10 seg_3 c_0 c_2 c_5 c_7 c_9 c_10 seg_4 c_": 361,
      "0 c_1 c_5 c_6 c_8 c_10 seg_": 362,
      " c_1 c_3 c_4 c_6 c_10 c_11 seg_": 363,
      "0 c_1 c_2 c_4 c_6 c_9 c_11 seg_1 c_1 c_2 c_4 c_6 c_9 c_11 seg_2 c_1 c_2 c_4 c_6 c_9 c_11 seg_3 c_1 c_2 c_4 c_6 c_9 c_11 seg_4 c_1 c_2 c_4 c_6 c_9 c_11 seg_5 c_1 c_2 c_4 c_6 c_9 c_11 seg_6 c_1 c_2 c_4 c_6 c_9 c_11 seg_7 c_1 c_2 c_4 c_6 c_9 c_11 seg_": 364,
      "4 c_0 c_2 c_3 c_5 c_7 c_10 seg_5 c_0 c_2 c_3 c_5 c_7 c_10 seg_6 c_0 c_2 c_3 c_5 c_7 c_10 seg_7 c_0 c_2 c_3 c_5 c_7 c_10 seg_": 365,
      "0 c_0 c_2 c_3 c_5 c_7 c_10 seg_1 c_0 c_2 c_3 c_5 c_7 c_10 seg_2 c_0 c_2 c_3 c_5 c_7 c_10 seg_3 c_0 c_2 c_3 c_5 c_7 c_10 seg_": 366,
      "0 c_2 c_4 c_5 c_7 c_9 seg_4 c_0 c_2 c_4 c_5 c_7 c_9 seg_5 c_0 c_2 c_4 c_5 c_7 c_9 seg_6 c_0 c_2 c_4 c_5 c_7 c_9 seg_7 c_0 c_2 c_4 c_5 c_7 c_9 seg_0 c_0 c_2 c_4 c_5 c_7 c_9 seg_1 c_0 c_2 c_4 c_5 c_7 c_9 seg_2 c_0 c_2 c_4 c_5 c_7 c_9 seg_3 c_0 c_2 c_4 c_5 c_7 c_9 seg_4 c_0 c_2 c_4 c_5 c_7 c_9 seg_5 c_0 c_2 c_4 c_5 c_7 c_9 seg_6 c_0 c_2 c_4 c_5 c_7 c_9 seg_7 c_0 c_2 c_4 c_5 c_7 c_9 seg_0 c_0 c_2 c_4 c_5 c_7 c_9 seg_1 c_0 c_2 c_4 c_5 c_7 c_9 seg_2 c_0 c_2 c_4 c_5 c_7 c_9 seg_3 c_": 367,
      "4 c_6 c_8 c_10 c_11 seg_": 368,
      " c_1 c_2 c_4 c_6 c_11 seg_": 369,
      "0 c_0 c_2 c_5 c_7 c_9 c_10 seg_1 c_0 c_2 c_5 c_7 c_9 c_10 seg_2 c_0 c_2 c_5 c_7 c_9 c_10 seg_3 c_0 c_2 c_5 c_7 c_9 c_10 seg_4 c_0 c_2 c_5 c_7 c_9 c_10 seg_5 c_0 c_2 c_5 c_7 c_9 c_10 seg_6 c_0 c_2 c_5 c_7 c_9 c_10 seg_7 c_0 c_2 c_5 c_7 c_9 c_10 seg_": 370,
      "0 c_2 c_5 c_7 c_11 seg_": 371,
      " c_1 c_2 c_4 c_9 c_11 seg_": 372,
      "8 c_9 c_10 c_11 seg_": 373,
      "0 c_2 c_3 c_7 c_8 c_10 seg_": 374,
      "0 c_1 c_4 c_6 c_8 c_9 c_11 seg_": 375,
      "7 c_9 c_10 seg_0 c_": 376,
      "0 c_0 c_2 c_3 c_5 c_7 c_10 seg_1 c_0 c_2 c_3 c_5 c_7 c_10 seg_2 c_0 c_2 c_3 c_5 c_7 c_10 seg_3 c_0 c_2 c_3 c_5 c_7 c_10 seg_4 c_0 c_2 c_3 c_5 c_7 c_10 seg_5 c_0 c_2 c_3 c_5 c_7 c_10 seg_6 c_0 c_2 c_3 c_5 c_7 c_10 seg_7 c_0 c_2 c_3 c_5 c_7 c_10 seg_": 377,
      "0 c_4 c_5 c_7 c_10 seg_": 378,
      "7 c_9 seg_1 c_": 379,
      "0 c_1 c_3 c_4 c_5 c_": 380,
      "0 c_1 c_2 c_4 c_6 c_9 c_11 seg_1 c_1 c_2 c_4 c_6 c_9 c_11 seg_2 c_1 c_2 c_4 c_6 c_9 c_11 seg_3 c_1 c_2 c_4 c_6 c_9 c_11 seg_4 c_1 c_2 c_4 c_6 c_9 c_11 seg_5 c_1 c_2 c_4 c_6 c_9 c_11 seg_6 c_1 c_2 c_4 c_6 c_9 c_11 seg_7 c_1 c_2 c_4 c_6 c_9 c_11 seg_0 c_1 c_2 c_4 c_6 c_9 c_11 seg_1 c_1 c_2 c_4 c_6 c_9 c_11 seg_2 c_1 c_2 c_4 c_6 c_9 c_11 seg_3 c_1 c_2 c_4 c_6 c_9 c_11 seg_4 c_1 c_2 c_4 c_6 c_9 c_11 seg_5 c_1 c_2 c_4 c_6 c_9 c_11 seg_6 c_1 c_2 c_4 c_6 c_9 c_11 seg_7 c_1 c_2 c_4 c_6 c_9 c_11 seg_": 381,
      "0 c_1 c_3 c_5 c_10 seg_": 382,
      "6 c_1 c_4 c_6 c_8 c_9 c_11 seg_": 383,
      "5 c_1 c_4 c_6 c_8 c_9 c_11 seg_": 384,
      "3 c_1 c_4 c_6 c_8 c_9 c_11 seg_": 385,
      "7 c_1 c_4 c_6 c_8 c_9 c_11 seg_": 386,
      "4 c_1 c_4 c_6 c_8 c_9 c_11 seg_": 387,
      "1 c_1 c_4 c_6 c_8 c_9 c_11 seg_": 388,
      "2 c_1 c_4 c_6 c_8 c_9 c_11 seg_": 389,
      "0 c_5 c_7 c_10 seg_": 390,
      "0 c_1 c_2 c_6 c_": 391,
      "4 c_1 c_3 c_5 c_6 c_8 c_10 seg_": 392,
      "7 c_1 c_3 c_5 c_6 c_8 c_10 seg_": 393,
      "5 c_1 c_3 c_5 c_6 c_8 c_10 seg_": 394,
      "6 c_1 c_3 c_5 c_6 c_8 c_10 seg_": 395,
      "2 c_1 c_3 c_5 c_6 c_8 c_10 seg_": 396,
      "1 c_1 c_3 c_5 c_6 c_8 c_10 seg_": 397,
      "3 c_1 c_3 c_5 c_6 c_8 c_10 seg_": 398,
      "0 c_0 c_2 c_5 c_7 c_9 c_10 seg_1 c_0 c_2 c_5 c_7 c_9 c_10 seg_2 c_0 c_2 c_5 c_7 c_9 c_10 seg_3 c_0 c_2 c_5 c_7 c_9 c_10 seg_4 c_0 c_2 c_5 c_7 c_9 c_10 seg_5 c_0 c_2 c_5 c_7 c_9 c_10 seg_6 c_0 c_2 c_5 c_7 c_9 c_10 seg_7 c_0 c_2 c_5 c_7 c_9 c_10 seg_0 c_0 c_2 c_5 c_7 c_9 c_10 seg_1 c_0 c_2 c_5 c_7 c_9 c_10 seg_2 c_0 c_2 c_5 c_7 c_9 c_10 seg_3 c_0 c_2 c_5 c_7 c_9 c_10 seg_4 c_0 c_2 c_5 c_7 c_9 c_10 seg_5 c_0 c_2 c_5 c_7 c_9 c_10 seg_6 c_0 c_2 c_5 c_7 c_9 c_10 seg_7 c_0 c_2 c_5 c_7 c_9 c_10 seg_": 399,
      "5 c_1 c_4 c_6 c_8 c_9 c_11 seg_6 c_1 c_4 c_6 c_8 c_9 c_11 seg_": 400,
      "0 c_1 c_4 c_6 c_8 c_9 c_11 seg_1 c_1 c_4 c_6 c_8 c_9 c_11 seg_": 401,
      "3 c_1 c_4 c_6 c_8 c_9 c_11 seg_4 c_1 c_4 c_6 c_8 c_9 c_11 seg_": 402,
      "0 c_1 c_3 c_5 c_6 c_8 c_10 seg_1 c_1 c_3 c_5 c_6 c_8 c_10 seg_": 403,
      "4 c_1 c_3 c_5 c_6 c_8 c_10 seg_5 c_1 c_3 c_5 c_6 c_8 c_10 seg_": 404,
      "6 c_1 c_3 c_5 c_6 c_8 c_10 seg_7 c_1 c_3 c_5 c_6 c_8 c_10 seg_": 405,
      "2 c_0 c_1 c_2 c_3 c_4 c_5 c_6 c_7 c_8 c_9 c_10 c_11 seg_": 406,
      "2 c_1 c_3 c_5 c_6 c_8 c_10 seg_3 c_1 c_3 c_5 c_6 c_8 c_10 seg_": 407,
      "6 c_8 c_10 c_11 seg_1": 408,
      "0 c_1 c_4 c_6 c_8 c_9 c_11 seg_1 c_1 c_4 c_6 c_8 c_9 c_11 seg_2 c_1 c_4 c_6 c_8 c_9 c_11 seg_": 409,
      "5 c_1 c_4 c_6 c_8 c_9 c_11 seg_6 c_1 c_4 c_6 c_8 c_9 c_11 seg_7 c_1 c_4 c_6 c_8 c_9 c_11 seg_": 410,
      "2 c_0 c_1 c_3 c_5 c_8 c_10 seg_": 411,
      "4 c_0 c_1 c_3 c_5 c_8 c_10 seg_": 412,
      "5 c_0 c_1 c_3 c_5 c_8 c_10 seg_": 413,
      "0 c_0 c_1 c_3 c_5 c_8 c_10 seg_": 414,
      "1 c_0 c_1 c_3 c_5 c_8 c_10 seg_": 415,
      "3 c_0 c_1 c_3 c_5 c_8 c_10 seg_": 416,
      "6 c_0 c_1 c_3 c_5 c_8 c_10 seg_": 417,
      "7 c_0 c_1 c_3 c_5 c_8 c_10 seg_": 418,
      "0 c_0 c_2 c_3 c_5 c_7 c_10 seg_1 c_0 c_2 c_3 c_5 c_7 c_10 seg_2 c_0 c_2 c_3 c_5 c_7 c_10 seg_3 c_0 c_2 c_3 c_5 c_7 c_10 seg_4 c_0 c_2 c_3 c_5 c_7 c_10 seg_5 c_0 c_2 c_3 c_5 c_7 c_10 seg_6 c_0 c_2 c_3 c_5 c_7 c_10 seg_7 c_0 c_2 c_3 c_5 c_7 c_10 seg_0 c_0 c_2 c_3 c_5 c_7 c_10 seg_1 c_0 c_2 c_3 c_5 c_7 c_10 seg_2 c_0 c_2 c_3 c_5 c_7 c_10 seg_3 c_0 c_2 c_3 c_5 c_7 c_10 seg_4 c_0 c_2 c_3 c_5 c_7 c_10 seg_5 c_0 c_2 c_3 c_5 c_7 c_10 seg_6 c_0 c_2 c_3 c_5 c_7 c_10 seg_7 c_0 c_2 c_3 c_5 c_7 c_10 seg_": 419,
      "0 c_2 c_3 c_4 c_5 c_": 420,
      " c_1 c_3 c_4 c_8 c_10 c_11 seg_": 421,
      "0 c_1 c_3 c_5 c_6 c_8 c_10 seg_1 c_1 c_3 c_5 c_6 c_8 c_10 seg_2 c_1 c_3 c_5 c_6 c_8 c_10 seg_3 c_1 c_3 c_5 c_6 c_8 c_10 seg_": 422,
      "4 c_1 c_3 c_5 c_6 c_8 c_10 seg_5 c_1 c_3 c_5 c_6 c_8 c_10 seg_6 c_1 c_3 c_5 c_6 c_8 c_10 seg_7 c_1 c_3 c_5 c_6 c_8 c_10 seg_": 423,
      "6 c_8 c_10 seg_": 424,
      "3 c_0 c_1 c_3 c_5 c_8 c_10 seg_4 c_0 c_1 c_3 c_5 c_8 c_10 seg_": 425,
      "0 c_1 c_3 c_5 c_6 c_": 426,
      "1 c_0 c_1 c_3 c_5 c_8 c_10 seg_2 c_0 c_1 c_3 c_5 c_8 c_10 seg_": 427,
      "6 c_0 c_1 c_3 c_5 c_8 c_10 seg_7 c_0 c_1 c_3 c_5 c_8 c_10 seg_": 428,
      "2 c_0 c_1 c_2 c_3 c_4 c_5 c_6 c_7 c_8 c_9 c_10 c_11 seg_3 c_": 429,
      "0 c_1 c_4 c_6 c_8 c_9 c_11 seg_1 c_1 c_4 c_6 c_8 c_9 c_11 seg_2 c_1 c_4 c_6 c_8 c_9 c_11 seg_3 c_1 c_4 c_6 c_8 c_9 c_11 seg_4 c_1 c_4 c_6 c_8 c_9 c_11 seg_": 430,
      "2 c_3 c_4 c_": 431,
      "6 c_0 c_1 c_3 c_5 c_8 c_10 seg_7 c_0 c_1 c_3 c_5 c_8 c_10 seg_0 c_0 c_1 c_3 c_5 c_8 c_10 seg_": 432,
      "3 c_0 c_1 c_3 c_5 c_8 c_10 seg_4 c_0 c_1 c_3 c_5 c_8 c_10 seg_5 c_0 c_1 c_3 c_5 c_8 c_10 seg_": 433,
      "5 c_1 c_3 c_6 c_8 c_10 c_11 seg_": 434,
      "7 c_1 c_3 c_6 c_8 c_10 c_11 seg_": 435,
      "4 c_1 c_3 c_6 c_8 c_10 c_11 seg_": 436,
      "2 c_1 c_3 c_6 c_8 c_10 c_11 seg_": 437,
      "6 c_1 c_3 c_6 c_8 c_10 c_11 seg_": 438,
      "3 c_1 c_3 c_6 c_8 c_10 c_11 seg_": 439,
      "0 c_1 c_3 c_6 c_8 c_10 c_11 seg_1": 440,
      "0 c_2 c_5 c_7 seg_": 441,
      "0 c_2 c_4 c_5 c_7 c_9 c_10 seg_1 c_": 442,
      "4 c_1 c_3 c_6 c_8 c_10 c_11 seg_5 c_1 c_3 c_6 c_8 c_10 c_11 seg_": 443,
      "0 c_1 c_3 c_6 c_8 c_10 c_11 seg_1 c_1 c_3 c_6 c_8 c_10 c_11 seg_": 444,
      "6 c_1 c_3 c_6 c_8 c_10 c_11 seg_7 c_1 c_3 c_6 c_8 c_10 c_11 seg_": 445,
      "2 c_1 c_3 c_6 c_8 c_10 c_11 seg_3 c_1 c_3 c_6 c_8 c_10 c_11 seg_": 446,
      "6 c_0 c_1 c_3 c_5 c_8 c_10 seg_7 c_0 c_1 c_3 c_5 c_8 c_10 seg_0 c_0 c_1 c_3 c_5 c_8 c_10 seg_1 c_0 c_1 c_3 c_5 c_8 c_10 seg_2 c_0 c_1 c_3 c_5 c_8 c_10 seg_": 447,
      "0 c_1 c_3 c_5 c_6 c_8 c_10 seg_1 c_1 c_3 c_5 c_6 c_8 c_10 seg_2 c_1 c_3 c_5 c_6 c_8 c_10 seg_3 c_1 c_3 c_5 c_6 c_8 c_10 seg_4 c_1 c_3 c_5 c_6 c_8 c_10 seg_5 c_1 c_3 c_5 c_6 c_8 c_10 seg_6 c_1 c_3 c_5 c_6 c_8 c_10 seg_7 c_1 c_3 c_5 c_6 c_8 c_10 seg_": 448,
      "5 c_1 c_4 c_6 c_8 c_9 c_11 seg_6 c_1 c_4 c_6 c_8 c_9 c_11 seg_7 c_1 c_4 c_6 c_8 c_9 c_11 seg_0 c_1 c_4 c_6 c_8 c_9 c_11 seg_1 c_1 c_4 c_6 c_8 c_9 c_11 seg_2 c_1 c_4 c_6 c_8 c_9 c_11 seg_3 c_1 c_4 c_6 c_8 c_9 c_11 seg_4 c_1 c_4 c_6 c_8 c_9 c_11 seg_": 449,
      "0 c_1 c_3 c_4 c_6 c_8 c_11 seg_": 450,
      "0 c_2 c_3 c_5 c_7 c_9 c_10 seg_1 c_": 451,
      "0 c_2 c_4 c_5 c_7 c_9 c_11 seg_1 c_": 452,
      "4 c_1 c_3 c_6 c_8 c_10 c_11 seg_5 c_1 c_3 c_6 c_8 c_10 c_11 seg_6 c_1 c_3 c_6 c_8 c_10 c_11 seg_7 c_1 c_3 c_6 c_8 c_10 c_11 seg_": 453,
      " c_1 c_3 c_6 c_8 seg_": 454,
      "0 c_1 c_3 c_6 c_8 c_10 c_11 seg_1 c_1 c_3 c_6 c_8 c_10 c_11 seg_2 c_1 c_3 c_6 c_8 c_10 c_11 seg_3 c_1 c_3 c_6 c_8 c_10 c_11 seg_": 455,
      "2 c_0 c_2 c_3 c_5 c_7 c_8 c_10 seg_": 456,
      "7 c_0 c_2 c_3 c_5 c_7 c_8 c_10 seg_": 457,
      "0 c_0 c_2 c_3 c_5 c_7 c_8 c_10 seg_1 c_": 458,
      "3 c_0 c_2 c_3 c_5 c_7 c_8 c_10 seg_": 459,
      "4 c_0 c_2 c_3 c_5 c_7 c_8 c_10 seg_": 460,
      "5 c_0 c_2 c_3 c_5 c_7 c_8 c_10 seg_": 461,
      "3 c_0 c_1 c_3 c_5 c_8 c_10 seg_4 c_0 c_1 c_3 c_5 c_8 c_10 seg_5 c_0 c_1 c_3 c_5 c_8 c_10 seg_6 c_0 c_1 c_3 c_5 c_8 c_10 seg_7 c_0 c_1 c_3 c_5 c_8 c_10 seg_0 c_0 c_1 c_3 c_5 c_8 c_10 seg_1 c_0 c_1 c_3 c_5 c_8 c_10 seg_2 c_0 c_1 c_3 c_5 c_8 c_10 seg_": 462,
      " c_1 c_3 c_4 c_8 c_11 seg_": 463,
      "6 c_0 c_2 c_3 c_5 c_7 c_8 c_10 seg_": 464,
      "2 c_4 c_9 c_11 seg_": 465,
      "0 c_2 c_3 c_5 c_7 c_8 c_10 seg_2 c_0 c_2 c_3 c_5 c_7 c_8 c_10 seg_": 466,
      "7 c_0 c_2 c_3 c_5 c_7 c_8 c_10 seg_0 c_0 c_2 c_3 c_5 c_7 c_8 c_10 seg_1 c_": 467,
      "3 c_0 c_2 c_3 c_5 c_7 c_8 c_10 seg_4 c_0 c_2 c_3 c_5 c_7 c_8 c_10 seg_": 468,
      "5 c_0 c_2 c_3 c_5 c_7 c_8 c_10 seg_6 c_0 c_2 c_3 c_5 c_7 c_8 c_10 seg_": 469,
      "8 c_10 c_11 seg_1": 470,
      "2 c_0 c_1 c_2 c_3 c_4 c_5 c_6 c_7 c_8 c_9 c_10 c_11 seg_3 c_0 c_1 c_2 c_3 c_4 c_5 c_6 c_7 c_8 c_9 c_10 c_11 seg_": 471,
      "0 c_2 c_5 c_6 c_": 472,
      "4 c_1 c_3 c_6 c_8 c_10 c_11 seg_5 c_1 c_3 c_6 c_8 c_10 c_11 seg_6 c_1 c_3 c_6 c_8 c_10 c_11 seg_7 c_1 c_3 c_6 c_8 c_10 c_11 seg_0 c_1 c_3 c_6 c_8 c_10 c_11 seg_1 c_1 c_3 c_6 c_8 c_10 c_11 seg_2 c_1 c_3 c_6 c_8 c_10 c_11 seg_3 c_1 c_3 c_6 c_8 c_10 c_11 seg_": 473,
      "2 c_0 c_2 c_4 c_5 c_7 c_9 c_11 seg_": 474,
      "7 c_0 c_2 c_3 c_5 c_7 c_8 c_10 seg_0 c_0 c_2 c_3 c_5 c_7 c_8 c_10 seg_1 c_0 c_2 c_3 c_5 c_7 c_8 c_10 seg_2 c_0 c_2 c_3 c_5 c_7 c_8 c_10 seg_": 475,
      "6 c_0 c_2 c_4 c_5 c_7 c_9 c_11 seg_": 476,
      "0 c_1 c_3 c_5 c_6 c_8 c_10 seg_1 c_1 c_3 c_5 c_6 c_8 c_10 seg_2 c_1 c_3 c_5 c_6 c_8 c_10 seg_3 c_1 c_3 c_5 c_6 c_8 c_10 seg_4 c_1 c_3 c_5 c_6 c_8 c_10 seg_5 c_1 c_3 c_5 c_6 c_8 c_10 seg_6 c_1 c_3 c_5 c_6 c_8 c_10 seg_7 c_1 c_3 c_5 c_6 c_8 c_10 seg_0 c_1 c_3 c_5 c_6 c_8 c_10 seg_1 c_1 c_3 c_5 c_6 c_8 c_10 seg_2 c_1 c_3 c_5 c_6 c_8 c_10 seg_3 c_1 c_3 c_5 c_6 c_8 c_10 seg_4 c_1 c_3 c_5 c_6 c_8 c_10 seg_5 c_1 c_3 c_5 c_6 c_8 c_10 seg_6 c_1 c_3 c_5 c_6 c_8 c_10 seg_7 c_1 c_3 c_5 c_6 c_8 c_10 seg_": 477,
      "4 c_0 c_2 c_4 c_5 c_7 c_9 c_11 seg_": 478,
      "0 c_0 c_2 c_4 c_5 c_7 c_9 c_11 seg_1 c_": 479,
      "5 c_0 c_2 c_4 c_5 c_7 c_9 c_11 seg_": 480,
      "3 c_0 c_2 c_3 c_5 c_7 c_8 c_10 seg_4 c_0 c_2 c_3 c_5 c_7 c_8 c_10 seg_5 c_0 c_2 c_3 c_5 c_7 c_8 c_10 seg_6 c_0 c_2 c_3 c_5 c_7 c_8 c_10 seg_": 481,
      "5 c_1 c_4 c_6 c_8 c_9 c_11 seg_6 c_1 c_4 c_6 c_8 c_9 c_11 seg_7 c_1 c_4 c_6 c_8 c_9 c_11 seg_0 c_1 c_4 c_6 c_8 c_9 c_11 seg_1 c_1 c_4 c_6 c_8 c_9 c_11 seg_2 c_1 c_4 c_6 c_8 c_9 c_11 seg_3 c_1 c_4 c_6 c_8 c_9 c_11 seg_4 c_1 c_4 c_6 c_8 c_9 c_11 seg_5 c_1 c_4 c_6 c_8 c_9 c_11 seg_6 c_1 c_4 c_6 c_8 c_9 c_11 seg_7 c_1 c_4 c_6 c_8 c_9 c_11 seg_0 c_1 c_4 c_6 c_8 c_9 c_11 seg_1 c_1 c_4 c_6 c_8 c_9 c_11 seg_2 c_1 c_4 c_6 c_8 c_9 c_11 seg_3 c_1 c_4 c_6 c_8 c_9 c_11 seg_4 c_1 c_4 c_6 c_8 c_9 c_11 seg_": 482,
      "7 c_0 c_2 c_4 c_5 c_7 c_9 c_11 seg_": 483,
      "3 c_0 c_2 c_4 c_5 c_7 c_9 c_11 seg_": 484,
      "2 c_0 c_1 c_2 c_3 c_4 c_5 c_6 c_7 c_8 c_9 c_10 c_11 seg_3 c_0 c_1 c_2 c_3 c_4 c_5 c_6 c_7 c_8 c_9 c_10 c_11 seg_4 c_": 485,
      "2 c_5 c_6 c_": 486,
      "6 c_0 c_2 c_4 c_5 c_7 c_9 c_11 seg_7 c_0 c_2 c_4 c_5 c_7 c_9 c_11 seg_": 487,
      "0 c_0 c_2 c_4 c_5 c_7 c_9 c_11 seg_1 c_0 c_2 c_4 c_5 c_7 c_9 c_11 seg_": 488,
      "4 c_0 c_2 c_4 c_5 c_7 c_9 c_11 seg_5 c_0 c_2 c_4 c_5 c_7 c_9 c_11 seg_": 489,
      "2 c_0 c_2 c_4 c_5 c_7 c_9 c_11 seg_3 c_0 c_2 c_4 c_5 c_7 c_9 c_11 seg_": 490,
      "5 c_1 c_3 c_4 c_6 c_8 c_11 seg_": 491,
      "2 c_1 c_3 c_4 c_6 c_8 c_11 seg_": 492,
      "4 c_1 c_3 c_4 c_6 c_8 c_11 seg_": 493,
      "6 c_1 c_3 c_4 c_6 c_8 c_11 seg_": 494,
      "3 c_1 c_3 c_4 c_6 c_8 c_11 seg_": 495,
      "7 c_1 c_3 c_4 c_6 c_8 c_11 seg_": 496,
      "3 c_0 c_1 c_3 c_5 c_8 c_10 seg_4 c_0 c_1 c_3 c_5 c_8 c_10 seg_5 c_0 c_1 c_3 c_5 c_8 c_10 seg_6 c_0 c_1 c_3 c_5 c_8 c_10 seg_7 c_0 c_1 c_3 c_5 c_8 c_10 seg_0 c_0 c_1 c_3 c_5 c_8 c_10 seg_1 c_0 c_1 c_3 c_5 c_8 c_10 seg_2 c_0 c_1 c_3 c_5 c_8 c_10 seg_3 c_0 c_1 c_3 c_5 c_8 c_10 seg_4 c_0 c_1 c_3 c_5 c_8 c_10 seg_5 c_0 c_1 c_3 c_5 c_8 c_10 seg_6 c_0 c_1 c_3 c_5 c_8 c_10 seg_7 c_0 c_1 c_3 c_5 c_8 c_10 seg_0 c_0 c_1 c_3 c_5 c_8 c_10 seg_1 c_0 c_1 c_3 c_5 c_8 c_10 seg_2 c_0 c_1 c_3 c_5 c_8 c_10 seg_": 497,
      "0 c_1 c_3 c_4 c_6 c_8 c_11 seg_1": 498,
      "7 c_11 seg_5 c_": 499,
      "4 c_9 c_11 seg_": 500,
      "7 c_11 seg_6 c_": 501,
      "7 c_11 seg_7 c_": 502,
      "7 c_11 seg_3 c_": 503,
      "7 c_11 seg_4 c_": 504,
      "0 c_1 c_3 c_4 c_6 c_8 c_11 seg_1 c_1 c_3 c_4 c_6 c_8 c_11 seg_": 505,
      "4 c_1 c_3 c_4 c_6 c_8 c_11 seg_5 c_1 c_3 c_4 c_6 c_8 c_11 seg_": 506,
      "2 c_1 c_3 c_4 c_6 c_8 c_11 seg_3 c_1 c_3 c_4 c_6 c_8 c_11 seg_": 507,
      "6 c_1 c_3 c_4 c_6 c_8 c_11 seg_7 c_1 c_3 c_4 c_6 c_8 c_11 seg_": 508,
      "3 c_0 c_2 c_3 c_5 c_7 c_8 c_10 seg_4 c_0 c_2 c_3 c_5 c_7 c_8 c_10 seg_5 c_0 c_2 c_3 c_5 c_7 c_8 c_10 seg_6 c_0 c_2 c_3 c_5 c_7 c_8 c_10 seg_7 c_0 c_2 c_3 c_5 c_7 c_8 c_10 seg_0 c_0 c_2 c_3 c_5 c_7 c_8 c_10 seg_1 c_0 c_2 c_3 c_5 c_7 c_8 c_10 seg_2 c_0 c_2 c_3 c_5 c_7 c_8 c_10 seg_": 509,
      "0 c_2 c_3 c_5 c_7 c_9 c_10 seg_2 c_": 510,
      "0 c_2 c_3 c_5 c_7 c_9 c_10 seg_3 c_": 511,
      "0 c_0 c_2 c_3 c_5 c_7 c_9 c_10 seg_1 c_": 512,
      "0 c_2 c_3 c_5 c_7 c_9 c_10 seg_4 c_": 513,
      "4 c_0 c_2 c_4 c_5 c_7 c_9 c_11 seg_5 c_0 c_2 c_4 c_5 c_7 c_9 c_11 seg_6 c_0 c_2 c_4 c_5 c_7 c_9 c_11 seg_7 c_0 c_2 c_4 c_5 c_7 c_9 c_11 seg_": 514,
      "0 c_2 c_3 c_5 c_7 c_9 c_10 seg_7 c_": 515,
      "0 c_2 c_3 c_5 c_7 c_9 c_10 seg_5 c_": 516,
      "0 c_2 c_3 c_5 c_7 c_9 c_10 seg_6 c_": 517,
      "0 c_0 c_2 c_4 c_5 c_7 c_9 c_11 seg_1 c_0 c_2 c_4 c_5 c_7 c_9 c_11 seg_2 c_0 c_2 c_4 c_5 c_7 c_9 c_11 seg_3 c_0 c_2 c_4 c_5 c_7 c_9 c_11 seg_": 518,
      "4 c_1 c_3 c_6 c_8 c_10 c_11 seg_5 c_1 c_3 c_6 c_8 c_10 c_11 seg_6 c_1 c_3 c_6 c_8 c_10 c_11 seg_7 c_1 c_3 c_6 c_8 c_10 c_11 seg_0 c_1 c_3 c_6 c_8 c_10 c_11 seg_1 c_1 c_3 c_6 c_8 c_10 c_11 seg_2 c_1 c_3 c_6 c_8 c_10 c_11 seg_3 c_1 c_3 c_6 c_8 c_10 c_11 seg_4 c_1 c_3 c_6 c_8 c_10 c_11 seg_5 c_1 c_3 c_6 c_8 c_10 c_11 seg_6 c_1 c_3 c_6 c_8 c_10 c_11 seg_7 c_1 c_3 c_6 c_8 c_10 c_11 seg_0 c_1 c_3 c_6 c_8 c_10 c_11 seg_1 c_1 c_3 c_6 c_8 c_10 c_11 seg_2 c_1 c_3 c_6 c_8 c_10 c_11 seg_3 c_1 c_3 c_6 c_8 c_10 c_11 seg_": 519,
      "0 c_2 c_3 c_5 c_7 c_9 c_10 seg_0 c_0 c_2 c_3 c_5 c_7 c_9 c_10 seg_1 c_": 520,
      "0 c_1 c_2 c_4 c_6 c_7 c_9 c_11 seg_": 521,
      "0 c_2 c_3 c_5 c_7 c_9 c_10 seg_3 c_0 c_2 c_3 c_5 c_7 c_9 c_10 seg_4 c_": 522,
      "0 c_1 c_3 c_5 c_7 c_8 seg_": 523,
      "0 c_2 c_3 c_5 c_7 c_9 c_10 seg_6 c_0 c_2 c_3 c_5 c_7 c_9 c_10 seg_7 c_": 524,
      "9 c_10 seg_5 c_": 525,
      "9 c_10 seg_6 c_": 526,
      "9 c_10 seg_4 c_": 527,
      "9 c_10 seg_7 c_": 528,
      "9 c_10 seg_3 c_": 529,
      "7 c_11 seg_2 c_": 530,
      " c_1 c_2 c_4 c_9 seg_": 531,
      "0 c_1 c_3 c_4 c_6 c_8 c_11 seg_1 c_1 c_3 c_4 c_6 c_8 c_11 seg_2 c_1 c_3 c_4 c_6 c_8 c_11 seg_3 c_1 c_3 c_4 c_6 c_8 c_11 seg_": 532,
      "4 c_1 c_3 c_4 c_6 c_8 c_11 seg_5 c_1 c_3 c_4 c_6 c_8 c_11 seg_6 c_1 c_3 c_4 c_6 c_8 c_11 seg_7 c_1 c_3 c_4 c_6 c_8 c_11 seg_": 533,
      "0 c_2 c_3 c_5 c_7 c_9 c_10 seg_3 c_0 c_2 c_3 c_5 c_7 c_9 c_10 seg_4 c_0 c_2 c_3 c_5 c_7 c_9 c_10 seg_5 c_": 534,
      "0 c_2 c_3 c_5 c_7 c_9 c_10 seg_0 c_0 c_2 c_3 c_5 c_7 c_9 c_10 seg_1 c_0 c_2 c_3 c_5 c_7 c_9 c_10 seg_2 c_": 535,
      "0 c_4 c_5 c_7 c_9 c_11 seg_": 536,
      "9 c_10 seg_2 c_": 537,
      "2 c_0 c_1 c_2 c_3 c_4 c_5 c_6 c_7 c_8 c_9 c_10 c_11 seg_3 c_0 c_1 c_2 c_3 c_4 c_5 c_6 c_7 c_8 c_9 c_10 c_11 seg_4 c_0 c_1 c_2 c_3 c_4 c_5 c_6 c_7 c_8 c_9 c_10 c_11 seg_": 538,
      "3 c_1 c_3 c_": 539,
      "5 c_1 c_3 c_": 540,
      "4 c_1 c_3 c_": 541,
      "2 c_1 c_3 c_": 542,
      "6 c_1 c_3 c_": 543,
      "7 c_1 c_3 c_": 544,
      "0 c_4 c_8 c_9 c_11 seg_": 545,
      "0 c_0 c_2 c_4 c_5 c_7 c_9 c_11 seg_1 c_0 c_2 c_4 c_5 c_7 c_9 c_11 seg_2 c_0 c_2 c_4 c_5 c_7 c_9 c_11 seg_3 c_0 c_2 c_4 c_5 c_7 c_9 c_11 seg_4 c_0 c_2 c_4 c_5 c_7 c_9 c_11 seg_5 c_0 c_2 c_4 c_5 c_7 c_9 c_11 seg_6 c_0 c_2 c_4 c_5 c_7 c_9 c_11 seg_7 c_0 c_2 c_4 c_5 c_7 c_9 c_11 seg_": 546,
      "0 c_2 c_3 c_5 c_7 c_9 c_10 seg_3 c_0 c_2 c_3 c_5 c_7 c_9 c_10 seg_4 c_0 c_2 c_3 c_5 c_7 c_9 c_10 seg_5 c_0 c_2 c_3 c_5 c_7 c_9 c_10 seg_6 c_0 c_2 c_3 c_5 c_7 c_9 c_10 seg_7 c_": 547,
      "2 c_0 c_1 c_2 c_3 c_4 c_5 c_6 c_7 c_8 c_9 c_10 c_11 seg_3 c_0 c_1 c_2 c_3 c_4 c_5 c_6 c_7 c_8 c_9 c_10 c_11 seg_4 c_0 c_1 c_2 c_3 c_4 c_5 c_6 c_7 c_8 c_9 c_10 c_11 seg_5 c_": 548,
      "9 seg_6 c_": 549,
      " c_1 c_2 c_4 c_6 c_8 c_9 seg_": 550,
      "3 c_0 c_2 c_3 c_5 c_7 c_8 c_10 seg_4 c_0 c_2 c_3 c_5 c_7 c_8 c_10 seg_5 c_0 c_2 c_3 c_5 c_7 c_8 c_10 seg_6 c_0 c_2 c_3 c_5 c_7 c_8 c_10 seg_7 c_0 c_2 c_3 c_5 c_7 c_8 c_10 seg_0 c_0 c_2 c_3 c_5 c_7 c_8 c_10 seg_1 c_0 c_2 c_3 c_5 c_7 c_8 c_10 seg_2 c_0 c_2 c_3 c_5 c_7 c_8 c_10 seg_3 c_0 c_2 c_3 c_5 c_7 c_8 c_10 seg_4 c_0 c_2 c_3 c_5 c_7 c_8 c_10 seg_5 c_0 c_2 c_3 c_5 c_7 c_8 c_10 seg_6 c_0 c_2 c_3 c_5 c_7 c_8 c_10 seg_7 c_0 c_2 c_3 c_5 c_7 c_8 c_10 seg_0 c_0 c_2 c_3 c_5 c_7 c_8 c_10 seg_1 c_0 c_2 c_3 c_5 c_7 c_8 c_10 seg_2 c_0 c_2 c_3 c_5 c_7 c_8 c_10 seg_": 551,
      "7 c_11 seg_1 c_": 552,
      "9 seg_5 c_": 553,
      "9 seg_4 c_": 554,
      "9 seg_3 c_": 555,
      "0 c_3 c_6 c_": 556,
      "9 seg_7 c_": 557,
      "0 c_1 c_3 c_4 c_6 c_8 c_11 seg_1 c_1 c_3 c_4 c_6 c_8 c_11 seg_2 c_1 c_3 c_4 c_6 c_8 c_11 seg_3 c_1 c_3 c_4 c_6 c_8 c_11 seg_4 c_1 c_3 c_4 c_6 c_8 c_11 seg_5 c_1 c_3 c_4 c_6 c_8 c_11 seg_6 c_1 c_3 c_4 c_6 c_8 c_11 seg_7 c_1 c_3 c_4 c_6 c_8 c_11 seg_": 558,
      "0 c_2 c_4 c_5 c_7 c_9 c_10 seg_3 c_": 559,
      "0 c_2 c_4 c_5 c_7 c_9 c_10 seg_7 c_": 560,
      "6 seg_": 561,
      "0 c_2 c_4 c_5 c_7 c_9 c_10 seg_4 c_": 562,
      "0 c_2 c_3 c_5 c_7 c_9 c_10 seg_3 c_0 c_2 c_3 c_5 c_7 c_9 c_10 seg_4 c_0 c_2 c_3 c_5 c_7 c_9 c_10 seg_5 c_0 c_2 c_3 c_5 c_7 c_9 c_10 seg_6 c_0 c_2 c_3 c_5 c_7 c_9 c_10 seg_7 c_0 c_2 c_3 c_5 c_7 c_9 c_10 seg_0 c_0 c_2 c_3 c_5 c_7 c_9 c_10 seg_1 c_0 c_2 c_3 c_5 c_7 c_9 c_10 seg_2 c_": 563,
      "0 c_2 c_4 c_5 c_7 c_9 c_10 seg_2 c_": 564,
      "0 c_2 c_4 c_5 c_7 c_9 c_10 seg_6 c_": 565,
      "0 c_2 c_4 c_5 c_7 c_9 c_10 seg_5 c_": 566,
      "0 c_0 c_2 c_4 c_5 c_7 c_9 c_10 seg_1 c_": 567,
      "2 c_1 c_2 c_4 c_6 c_7 c_9 c_11 seg_": 568,
      "3 c_1 c_2 c_4 c_6 c_7 c_9 c_11 seg_": 569,
      "0 c_4 c_5 c_7 seg_": 570,
      "7 c_1 c_2 c_4 c_6 c_7 c_9 c_11 seg_": 571,
      "4 c_1 c_2 c_4 c_6 c_7 c_9 c_11 seg_": 572,
      "5 c_1 c_2 c_4 c_6 c_7 c_9 c_11 seg_": 573,
      "6 c_1 c_2 c_4 c_6 c_7 c_9 c_11 seg_": 574,
      "7 c_10 seg_6 c_": 575,
      "7 c_10 seg_5 c_": 576,
      "1 c_1 c_2 c_4 c_6 c_7 c_9 c_11 seg_": 577,
      "7 c_10 seg_7 c_": 578,
      "7 c_10 seg_4 c_": 579,
      "9 seg_2 c_": 580,
      "0 c_2 c_4 c_5 c_7 c_9 c_10 seg_7 c_0 c_2 c_4 c_5 c_7 c_9 c_10 seg_": 581,
      "0 c_2 c_4 c_5 c_7 c_9 c_10 seg_2 c_0 c_2 c_4 c_5 c_7 c_9 c_10 seg_3 c_": 582,
      "2 c_4 c_8 c_9 c_11 seg_": 583,
      "0 c_2 c_3 c_5 c_6 c_": 584,
      "0 c_2 c_4 c_5 c_7 c_9 c_10 seg_4 c_0 c_2 c_4 c_5 c_7 c_9 c_10 seg_5 c_": 585,
      "2 c_1 c_2 c_4 c_6 c_7 c_9 c_11 seg_3 c_1 c_2 c_4 c_6 c_7 c_9 c_11 seg_": 586,
      "0 c_1 c_2 c_4 c_6 c_7 c_9 c_11 seg_1 c_1 c_2 c_4 c_6 c_7 c_9 c_11 seg_": 587,
      "0 c_4 c_9 c_11 seg_": 588,
      "4 c_1 c_2 c_4 c_6 c_7 c_9 c_11 seg_5 c_1 c_2 c_4 c_6 c_7 c_9 c_11 seg_": 589,
      "2 c_3 c_5 c_6 c_": 590,
      "6 c_1 c_2 c_4 c_6 c_7 c_9 c_11 seg_7 c_1 c_2 c_4 c_6 c_7 c_9 c_11 seg_": 591,
      "0 c_1 c_3 c_6 c_8 seg_": 592,
      "0 c_2 c_4 c_5 c_7 c_9 c_10 seg_6 c_0 c_2 c_4 c_5 c_7 c_9 c_10 seg_7 c_0 c_2 c_4 c_5 c_7 c_9 c_10 seg_": 593,
      "7 c_1 c_3 c_4 c_6 c_8 c_9 c_11 seg_": 594,
      "3 c_1 c_3 c_4 c_6 c_8 c_9 c_11 seg_": 595,
      "2 c_1 c_3 c_4 c_6 c_8 c_9 c_11 seg_": 596,
      "5 c_1 c_3 c_4 c_6 c_8 c_9 c_11 seg_": 597,
      "6 c_1 c_3 c_4 c_6 c_8 c_9 c_11 seg_": 598,
      "4 c_1 c_3 c_4 c_6 c_8 c_9 c_11 seg_": 599,
      "2 c_0 c_1 c_2 c_3 c_4 c_5 c_6 c_7 c_8 c_9 c_10 c_11 seg_3 c_0 c_1 c_2 c_3 c_4 c_5 c_6 c_7 c_8 c_9 c_10 c_11 seg_4 c_0 c_1 c_2 c_3 c_4 c_5 c_6 c_7 c_8 c_9 c_10 c_11 seg_5 c_0 c_1 c_2 c_3 c_4 c_5 c_6 c_7 c_8 c_9 c_10 c_11 seg_": 600,
      "0 c_0 c_2 c_4 c_5 c_7 c_9 c_10 seg_1 c_0 c_2 c_4 c_5 c_7 c_9 c_10 seg_2 c_0 c_2 c_4 c_5 c_7 c_9 c_10 seg_3 c_": 601,
      "0 c_0 c_2 c_4 c_5 c_7 c_9 c_11 seg_1 c_0 c_2 c_4 c_5 c_7 c_9 c_11 seg_2 c_0 c_2 c_4 c_5 c_7 c_9 c_11 seg_3 c_0 c_2 c_4 c_5 c_7 c_9 c_11 seg_4 c_0 c_2 c_4 c_5 c_7 c_9 c_11 seg_5 c_0 c_2 c_4 c_5 c_7 c_9 c_11 seg_6 c_0 c_2 c_4 c_5 c_7 c_9 c_11 seg_7 c_0 c_2 c_4 c_5 c_7 c_9 c_11 seg_0 c_0 c_2 c_4 c_5 c_7 c_9 c_11 seg_1 c_0 c_2 c_4 c_5 c_7 c_9 c_11 seg_2 c_0 c_2 c_4 c_5 c_7 c_9 c_11 seg_3 c_0 c_2 c_4 c_5 c_7 c_9 c_11 seg_4 c_0 c_2 c_4 c_5 c_7 c_9 c_11 seg_5 c_0 c_2 c_4 c_5 c_7 c_9 c_11 seg_6 c_0 c_2 c_4 c_5 c_7 c_9 c_11 seg_7 c_0 c_2 c_4 c_5 c_7 c_9 c_11 seg_": 602,
      "0 c_2 c_4 c_7 seg_": 603,
      "0 c_1 c_3 c_4 c_6 c_8 c_9 c_11 seg_1": 604,
      "2 c_3 c_5 c_10 seg_": 605,
      "7 c_9 seg_0 c_": 606,
      " c_1 c_3 c_4 c_6 c_11 seg_": 607,
      "0 c_1 c_3 c_4 c_6 c_8 c_9 c_11 seg_1 c_1 c_3 c_4 c_6 c_8 c_9 c_11 seg_": 608,
      "3 c_1 c_3 c_4 c_6 c_8 c_9 c_11 seg_4 c_1 c_3 c_4 c_6 c_8 c_9 c_11 seg_": 609,
      "6 c_1 c_3 c_4 c_6 c_8 c_9 c_11 seg_7 c_1 c_3 c_4 c_6 c_8 c_9 c_11 seg_": 610,
      "2 c_1 c_2 c_4 c_6 c_7 c_9 c_11 seg_3 c_1 c_2 c_4 c_6 c_7 c_9 c_11 seg_4 c_1 c_2 c_4 c_6 c_7 c_9 c_11 seg_5 c_1 c_2 c_4 c_6 c_7 c_9 c_11 seg_": 611,
      "2 c_0 c_1 c_2 c_3 c_4 c_5 c_6 c_7 c_8 c_9 c_10 c_11 seg_3 c_0 c_1 c_2 c_3 c_4 c_5 c_6 c_7 c_8 c_9 c_10 c_11 seg_4 c_0 c_1 c_2 c_3 c_4 c_5 c_6 c_7 c_8 c_9 c_10 c_11 seg_5 c_0 c_1 c_2 c_3 c_4 c_5 c_6 c_7 c_8 c_9 c_10 c_11 seg_6 c_": 612,
      "6 c_1 c_2 c_4 c_6 c_7 c_9 c_11 seg_7 c_1 c_2 c_4 c_6 c_7 c_9 c_11 seg_0 c_1 c_2 c_4 c_6 c_7 c_9 c_11 seg_1 c_1 c_2 c_4 c_6 c_7 c_9 c_11 seg_": 613,
      "0 c_2 c_4 c_5 c_7 c_9 c_10 seg_4 c_0 c_2 c_4 c_5 c_7 c_9 c_10 seg_5 c_0 c_2 c_4 c_5 c_7 c_9 c_10 seg_6 c_0 c_2 c_4 c_5 c_7 c_9 c_10 seg_7 c_0 c_2 c_4 c_5 c_7 c_9 c_10 seg_": 614,
      "0 c_2 c_4 c_8 c_9 c_11 seg_": 615,
      "7 c_0 c_2 c_4 c_6 c_7 c_9 c_11 seg_": 616,
      "6 c_0 c_2 c_4 c_6 c_7 c_9 c_11 seg_": 617,
      "9 seg_1 c_": 618,
      "2 c_0 c_2 c_4 c_6 c_7 c_9 c_11 seg_": 619,
      "5 c_0 c_2 c_4 c_6 c_7 c_9 c_11 seg_": 620,
      "4 c_0 c_2 c_4 c_6 c_7 c_9 c_11 seg_": 621,
      "0 c_0 c_2 c_4 c_6 c_7 c_9 c_11 seg_1 c_": 622,
      "4 c_6 c_7 c_10 c_11 seg_": 623,
      "0 c_1 c_3 c_4 c_6 c_8 c_9 c_11 seg_1 c_1 c_3 c_4 c_6 c_8 c_9 c_11 seg_2 c_1 c_3 c_4 c_6 c_8 c_9 c_11 seg_": 624,
      "bo": 625,
      "s seg_": 626,
      "bos seg_": 627,
      "3 c_1 c_3 c_4 c_6 c_8 c_9 c_11 seg_4 c_1 c_3 c_4 c_6 c_8 c_9 c_11 seg_5 c_1 c_3 c_4 c_6 c_8 c_9 c_11 seg_": 628,
      "3 c_0 c_2 c_4 c_6 c_7 c_9 c_11 seg_": 629,
      "0 c_1 c_3 c_4 c_6 c_8 c_11 seg_1 c_1 c_3 c_4 c_6 c_8 c_11 seg_2 c_1 c_3 c_4 c_6 c_8 c_11 seg_3 c_1 c_3 c_4 c_6 c_8 c_11 seg_4 c_1 c_3 c_4 c_6 c_8 c_11 seg_5 c_1 c_3 c_4 c_6 c_8 c_11 seg_6 c_1 c_3 c_4 c_6 c_8 c_11 seg_7 c_1 c_3 c_4 c_6 c_8 c_11 seg_0 c_1 c_3 c_4 c_6 c_8 c_11 seg_1 c_1 c_3 c_4 c_6 c_8 c_11 seg_2 c_1 c_3 c_4 c_6 c_8 c_11 seg_3 c_1 c_3 c_4 c_6 c_8 c_11 seg_4 c_1 c_3 c_4 c_6 c_8 c_11 seg_5 c_1 c_3 c_4 c_6 c_8 c_11 seg_6 c_1 c_3 c_4 c_6 c_8 c_11 seg_7 c_1 c_3 c_4 c_6 c_8 c_11 seg_": 630,
      "0 c_2 c_3 c_5 c_7 c_9 c_10 seg_3 c_0 c_2 c_3 c_5 c_7 c_9 c_10 seg_4 c_0 c_2 c_3 c_5 c_7 c_9 c_10 seg_5 c_0 c_2 c_3 c_5 c_7 c_9 c_10 seg_6 c_0 c_2 c_3 c_5 c_7 c_9 c_10 seg_7 c_0 c_2 c_3 c_5 c_7 c_9 c_10 seg_0 c_0 c_2 c_3 c_5 c_7 c_9 c_10 seg_1 c_0 c_2 c_3 c_5 c_7 c_9 c_10 seg_2 c_0 c_2 c_3 c_5 c_7 c_9 c_10 seg_3 c_0 c_2 c_3 c_5 c_7 c_9 c_10 seg_4 c_0 c_2 c_3 c_5 c_7 c_9 c_10 seg_5 c_0 c_2 c_3 c_5 c_7 c_9 c_10 seg_6 c_0 c_2 c_3 c_5 c_7 c_9 c_10 seg_7 c_0 c_2 c_3 c_5 c_7 c_9 c_10 seg_0 c_0 c_2 c_3 c_5 c_7 c_9 c_10 seg_1 c_0 c_2 c_3 c_5 c_7 c_9 c_10 seg_2 c_": 631,
      "7 c_10 seg_3 c_": 632,
      "0 c_0 c_2 c_4 c_6 c_7 c_9 c_11 seg_1 c_0 c_2 c_4 c_6 c_7 c_9 c_11 seg_": 633,
      "4 c_8 c_11 seg_": 634,
      "0 c_1 c_3 c_4 c_6 c_8 seg_": 635,
      "5 c_0 c_2 c_4 c_6 c_7 c_9 c_11 seg_6 c_0 c_2 c_4 c_6 c_7 c_9 c_11 seg_": 636,
      "2 c_0 c_2 c_4 c_6 c_7 c_9 c_11 seg_3 c_0 c_2 c_4 c_6 c_7 c_9 c_11 seg_": 637,
      "0 c_2 c_5 c_7 c_9 c_11 seg_": 638,
      "3 c_5 c_6 c_10 c_11 seg_": 639,
      "7 c_10 seg_2 c_": 640,
      "0 c_2 c_4 c_5 c_7 c_9 c_10 seg_4 c_0 c_2 c_4 c_5 c_7 c_9 c_10 seg_5 c_0 c_2 c_4 c_5 c_7 c_9 c_10 seg_6 c_0 c_2 c_4 c_5 c_7 c_9 c_10 seg_7 c_0 c_2 c_4 c_5 c_7 c_9 c_10 seg_0 c_0 c_2 c_4 c_5 c_7 c_9 c_10 seg_1 c_0 c_2 c_4 c_5 c_7 c_9 c_10 seg_2 c_0 c_2 c_4 c_5 c_7 c_9 c_10 seg_3 c_": 641,
      "7 c_0 c_2 c_4 c_6 c_7 c_9 c_11 seg_0 c_0 c_2 c_4 c_6 c_7 c_9 c_11 seg_1 c_0 c_2 c_4 c_6 c_7 c_9 c_11 seg_": 642,
      "6 c_1 c_3 c_4 c_6 c_8 c_9 c_11 seg_7 c_1 c_3 c_4 c_6 c_8 c_9 c_11 seg_0 c_1 c_3 c_4 c_6 c_8 c_9 c_11 seg_1 c_1 c_3 c_4 c_6 c_8 c_9 c_11 seg_2 c_1 c_3 c_4 c_6 c_8 c_9 c_11 seg_": 643,
      "4 c_0 c_2 c_4 c_6 c_7 c_9 c_11 seg_5 c_0 c_2 c_4 c_6 c_7 c_9 c_11 seg_6 c_0 c_2 c_4 c_6 c_7 c_9 c_11 seg_": 644,
      "2 c_1 c_2 c_4 c_6 c_7 c_9 c_11 seg_3 c_1 c_2 c_4 c_6 c_7 c_9 c_11 seg_4 c_1 c_2 c_4 c_6 c_7 c_9 c_11 seg_5 c_1 c_2 c_4 c_6 c_7 c_9 c_11 seg_6 c_1 c_2 c_4 c_6 c_7 c_9 c_11 seg_7 c_1 c_2 c_4 c_6 c_7 c_9 c_11 seg_0 c_1 c_2 c_4 c_6 c_7 c_9 c_11 seg_1 c_1 c_2 c_4 c_6 c_7 c_9 c_11 seg_": 645,
      "2 c_0 c_1 c_2 c_3 c_4 c_5 c_6 c_7 c_8 c_9 c_10 c_11 seg_3 c_0 c_1 c_2 c_3 c_4 c_5 c_6 c_7 c_8 c_9 c_10 c_11 seg_4 c_0 c_1 c_2 c_3 c_4 c_5 c_6 c_7 c_8 c_9 c_10 c_11 seg_5 c_0 c_1 c_2 c_3 c_4 c_5 c_6 c_7 c_8 c_9 c_10 c_11 seg_6 c_0 c_1 c_2 c_3 c_4 c_5 c_6 c_7 c_8 c_9 c_10 c_11 seg_": 646,
      "4 c_6 c_8 c_10 seg_": 647,
      "7 c_8 seg_7 c_": 648,
      "7 c_8 seg_6 c_": 649,
      "0 c_1 c_3 c_5 c_6 c_8 c_10 c_11 seg_": 650,
      "7 c_8 seg_3 c_": 651,
      "7 c_8 seg_5 c_": 652,
      "7 c_8 seg_4 c_": 653,
      "0 c_1 c_3 c_8 seg_": 654,
      "7 c_0 c_2 c_4 c_6 c_7 c_9 c_11 seg_0 c_0 c_2 c_4 c_6 c_7 c_9 c_11 seg_1 c_0 c_2 c_4 c_6 c_7 c_9 c_11 seg_2 c_0 c_2 c_4 c_6 c_7 c_9 c_11 seg_3 c_0 c_2 c_4 c_6 c_7 c_9 c_11 seg_": 655,
      "7 c_8 seg_2 c_": 656,
      "2 c_0 c_1 c_2 c_3 c_4 c_5 c_6 c_7 c_8 c_9 c_10 c_11 seg_3 c_0 c_1 c_2 c_3 c_4 c_5 c_6 c_7 c_8 c_9 c_10 c_11 seg_4 c_0 c_1 c_2 c_3 c_4 c_5 c_6 c_7 c_8 c_9 c_10 c_11 seg_5 c_0 c_1 c_2 c_3 c_4 c_5 c_6 c_7 c_8 c_9 c_10 c_11 seg_6 c_0 c_1 c_2 c_3 c_4 c_5 c_6 c_7 c_8 c_9 c_10 c_11 seg_7 c_": 657,
      "6 c_1 c_3 c_4 c_6 c_8 c_9 c_11 seg_7 c_1 c_3 c_4 c_6 c_8 c_9 c_11 seg_0 c_1 c_3 c_4 c_6 c_8 c_9 c_11 seg_1 c_1 c_3 c_4 c_6 c_8 c_9 c_11 seg_2 c_1 c_3 c_4 c_6 c_8 c_9 c_11 seg_3 c_1 c_3 c_4 c_6 c_8 c_9 c_11 seg_4 c_1 c_3 c_4 c_6 c_8 c_9 c_11 seg_5 c_1 c_3 c_4 c_6 c_8 c_9 c_11 seg_": 658,
      "9 c_10 seg_1 c_": 659,
      "7 c_8 seg_1 c_": 660,
      " c_1 c_2 c_4 c_5 c_6 c_": 661,
      "0 c_4 c_6 c_9 c_11 seg_": 662,
      "6 c_0 c_2 c_4 c_7 c_9 c_11 seg_7 c_0 c_2 c_4 c_7 c_9 c_11 seg_0 c_0 c_2 c_4 c_7 c_9 c_11 seg_1 c_0 c_2 c_4 c_7 c_9 c_11 seg_2 c_0 c_2 c_4 c_7 c_9 c_11 seg_3 c_0 c_2 c_4 c_7 c_9 c_11 seg_4 c_0 c_2 c_4 c_7 c_9 c_11 seg_5 c_0 c_2 c_4 c_7 c_9 c_11 seg_6 c_0 c_2 c_4 c_7 c_9 c_11 seg_7 c_0 c_2 c_4 c_7 c_9 c_11 seg_0 c_0 c_2 c_4 c_7 c_9 c_11 seg_1 c_0 c_2 c_4 c_7 c_9 c_11 seg_2 c_0 c_2 c_4 c_7 c_9 c_11 seg_3 c_0 c_2 c_4 c_7 c_9 c_11 seg_4 c_0 c_2 c_4 c_7 c_9 c_11 seg_5 c_0 c_2 c_4 c_7 c_9 c_11 seg_6 c_0 c_2 c_4 c_7 c_9 c_11 seg_7 c_0 c_2 c_4 c_7 c_9 c_11 seg_0 c_0 c_2 c_4 c_7 c_9 c_11 seg_1 c_0 c_2 c_4 c_7 c_9 c_11 seg_2 c_0 c_2 c_4 c_7 c_9 c_11 seg_3 c_0 c_2 c_4 c_7 c_9 c_11 seg_4 c_0 c_2 c_4 c_7 c_9 c_11 seg_5 c_0 c_2 c_4 c_7 c_9 c_11 seg_6 c_0 c_2 c_4 c_7 c_9 c_11 seg_7 c_0 c_2 c_4 c_7 c_9 c_11 seg_0 c_0 c_2 c_4 c_7 c_9 c_11 seg_1 c_0 c_2 c_4 c_7 c_9 c_11 seg_2 c_0 c_2 c_4 c_7 c_9 c_11 seg_3 c_0 c_2 c_4 c_7 c_9 c_11 seg_4 c_0 c_2 c_4 c_7 c_9 c_11 seg_5 c_0 c_2 c_4 c_7 c_9 c_11 seg_": 663,
      "2 c_0 c_1 c_3 c_5 c_7 c_8 c_10 seg_": 664,
      "7 c_0 c_1 c_3 c_5 c_7 c_8 c_10 seg_": 665,
      "0 c_0 c_1 c_3 c_5 c_7 c_8 c_10 seg_": 666,
      "5 c_0 c_1 c_3 c_5 c_7 c_8 c_10 seg_": 667,
      "3 c_0 c_1 c_3 c_5 c_7 c_8 c_10 seg_": 668,
      "4 c_0 c_1 c_3 c_5 c_7 c_8 c_10 seg_": 669,
      "1 c_0 c_1 c_3 c_5 c_7 c_8 c_10 seg_": 670,
      "5 seg_": 671,
      "6 c_0 c_1 c_3 c_5 c_7 c_8 c_10 seg_": 672,
      "7 c_0 c_2 c_4 c_6 c_7 c_9 c_11 seg_0 c_0 c_2 c_4 c_6 c_7 c_9 c_11 seg_1 c_0 c_2 c_4 c_6 c_7 c_9 c_11 seg_2 c_0 c_2 c_4 c_6 c_7 c_9 c_11 seg_3 c_0 c_2 c_4 c_6 c_7 c_9 c_11 seg_4 c_0 c_2 c_4 c_6 c_7 c_9 c_11 seg_5 c_0 c_2 c_4 c_6 c_7 c_9 c_11 seg_6 c_0 c_2 c_4 c_6 c_7 c_9 c_11 seg_": 673,
      "0 c_0 c_1 c_3 c_5 c_7 c_8 c_10 seg_1 c_0 c_1 c_3 c_5 c_7 c_8 c_10 seg_": 674,
      "7 c_8 seg_0 c_": 675,
      "0 c_2 c_4 c_5 c_7 c_9 c_10 seg_4 c_0 c_2 c_4 c_5 c_7 c_9 c_10 seg_5 c_0 c_2 c_4 c_5 c_7 c_9 c_10 seg_6 c_0 c_2 c_4 c_5 c_7 c_9 c_10 seg_7 c_0 c_2 c_4 c_5 c_7 c_9 c_10 seg_0 c_0 c_2 c_4 c_5 c_7 c_9 c_10 seg_1 c_0 c_2 c_4 c_5 c_7 c_9 c_10 seg_2 c_0 c_2 c_4 c_5 c_7 c_9 c_10 seg_3 c_0 c_2 c_4 c_5 c_7 c_9 c_10 seg_4 c_0 c_2 c_4 c_5 c_7 c_9 c_10 seg_5 c_0 c_2 c_4 c_5 c_7 c_9 c_10 seg_6 c_0 c_2 c_4 c_5 c_7 c_9 c_10 seg_7 c_0 c_2 c_4 c_5 c_7 c_9 c_10 seg_0 c_0 c_2 c_4 c_5 c_7 c_9 c_10 seg_1 c_0 c_2 c_4 c_5 c_7 c_9 c_10 seg_2 c_0 c_2 c_4 c_5 c_7 c_9 c_10 seg_3 c_": 676,
      "5 c_0 c_1 c_3 c_5 c_7 c_8 c_10 seg_6 c_0 c_1 c_3 c_5 c_7 c_8 c_10 seg_": 677,
      "bos seg_0 c_0 c_1 c_2 c_3 c_4 c_5 c_6 c_7 c_8 c_9 c_10 c_11 seg_": 678,
      "2 c_0 c_1 c_3 c_5 c_7 c_8 c_10 seg_3 c_0 c_1 c_3 c_5 c_7 c_8 c_10 seg_": 679,
      "1 c_0 c_1 c_3 c_5 c_6 c_8 c_10 seg_": 680,
      "7 c_0 c_1 c_3 c_5 c_6 c_8 c_10 seg_": 681,
      "5 c_6 c_8 seg_": 682,
      "2 c_1 c_2 c_4 c_6 c_8 c_9 c_11 seg_": 683,
      "2 c_0 c_1 c_3 c_5 c_6 c_8 c_10 seg_": 684,
      "4 c_0 c_1 c_3 c_5 c_6 c_8 c_10 seg_": 685,
      "6 c_0 c_1 c_3 c_5 c_6 c_8 c_10 seg_": 686,
      "3 c_0 c_1 c_3 c_5 c_6 c_8 c_10 seg_": 687,
      "4 c_1 c_2 c_4 c_6 c_8 c_9 c_11 seg_": 688,
      "5 c_0 c_1 c_3 c_5 c_6 c_8 c_10 seg_": 689,
      "3 c_1 c_2 c_4 c_6 c_8 c_9 c_11 seg_": 690,
      "5 c_1 c_2 c_4 c_6 c_8 c_9 c_11 seg_": 691,
      "6 c_1 c_2 c_4 c_6 c_8 c_9 c_11 seg_": 692,
      "0 c_0 c_1 c_3 c_5 c_6 c_8 c_10 seg_": 693,
      "7 c_1 c_2 c_4 c_6 c_8 c_9 c_11 seg_": 694,
      "2 c_0 c_1 c_2 c_3 c_4 c_5 c_6 c_7 c_8 c_9 c_10 c_11 seg_3 c_0 c_1 c_2 c_3 c_4 c_5 c_6 c_7 c_8 c_9 c_10 c_11 seg_4 c_0 c_1 c_2 c_3 c_4 c_5 c_6 c_7 c_8 c_9 c_10 c_11 seg_5 c_0 c_1 c_2 c_3 c_4 c_5 c_6 c_7 c_8 c_9 c_10 c_11 seg_6 c_0 c_1 c_2 c_3 c_4 c_5 c_6 c_7 c_8 c_9 c_10 c_11 seg_7 c_0 c_1 c_2 c_3 c_4 c_5 c_6 c_7 c_8 c_9 c_10 c_11 seg_": 695,
      "2 c_1 c_2 c_4 c_6 c_7 c_9 c_11 seg_3 c_1 c_2 c_4 c_6 c_7 c_9 c_11 seg_4 c_1 c_2 c_4 c_6 c_7 c_9 c_11 seg_5 c_1 c_2 c_4 c_6 c_7 c_9 c_11 seg_6 c_1 c_2 c_4 c_6 c_7 c_9 c_11 seg_7 c_1 c_2 c_4 c_6 c_7 c_9 c_11 seg_0 c_1 c_2 c_4 c_6 c_7 c_9 c_11 seg_1 c_1 c_2 c_4 c_6 c_7 c_9 c_11 seg_2 c_1 c_2 c_4 c_6 c_7 c_9 c_11 seg_3 c_1 c_2 c_4 c_6 c_7 c_9 c_11 seg_4 c_1 c_2 c_4 c_6 c_7 c_9 c_11 seg_5 c_1 c_2 c_4 c_6 c_7 c_9 c_11 seg_6 c_1 c_2 c_4 c_6 c_7 c_9 c_11 seg_7 c_1 c_2 c_4 c_6 c_7 c_9 c_11 seg_0 c_1 c_2 c_4 c_6 c_7 c_9 c_11 seg_1 c_1 c_2 c_4 c_6 c_7 c_9 c_11 seg_": 696,
      "0 c_1 c_2 c_4 c_6 c_8 c_9 c_11 seg_1": 697,
      "7 c_0 c_1 c_3 c_5 c_7 c_8 c_10 seg_0 c_0 c_1 c_3 c_5 c_7 c_8 c_10 seg_1 c_0 c_1 c_3 c_5 c_7 c_8 c_10 seg_": 698,
      " c_1 c_2 c_6 c_7 c_9 c_11 seg_": 699,
      "6 c_8 c_9 seg_": 700,
      "4 c_0 c_1 c_3 c_5 c_7 c_8 c_10 seg_5 c_0 c_1 c_3 c_5 c_7 c_8 c_10 seg_6 c_0 c_1 c_3 c_5 c_7 c_8 c_10 seg_": 701,
      "1 c_1 c_3 c_": 702,
      "6 c_0 c_1 c_3 c_5 c_6 c_8 c_10 seg_7 c_0 c_1 c_3 c_5 c_6 c_8 c_10 seg_": 703,
      "0 c_0 c_1 c_3 c_5 c_6 c_8 c_10 seg_1 c_0 c_1 c_3 c_5 c_6 c_8 c_10 seg_": 704,
      "2 c_0 c_1 c_3 c_5 c_6 c_8 c_10 seg_3 c_0 c_1 c_3 c_5 c_6 c_8 c_10 seg_": 705,
      "4 c_0 c_1 c_3 c_5 c_6 c_8 c_10 seg_5 c_0 c_1 c_3 c_5 c_6 c_8 c_10 seg_": 706,
      " c_1 c_2 c_4 c_6 c_8 c_9 c_11 seg_2 c_1 c_2 c_4 c_6 c_8 c_9 c_11 seg_": 707,
      "3 c_1 c_2 c_4 c_6 c_8 c_9 c_11 seg_4 c_1 c_2 c_4 c_6 c_8 c_9 c_11 seg_": 708,
      "6 c_1 c_3 c_5 c_6 c_8 c_10 c_11 seg_": 709,
      "1 c_1 c_3 c_5 c_6 c_8 c_10 c_11 seg_": 710,
      "4 c_1 c_3 c_5 c_6 c_8 c_10 c_11 seg_": 711,
      "5 c_1 c_2 c_4 c_6 c_8 c_9 c_11 seg_6 c_1 c_2 c_4 c_6 c_8 c_9 c_11 seg_": 712,
      "2 c_1 c_3 c_5 c_6 c_8 c_10 c_11 seg_": 713,
      "7 c_1 c_3 c_5 c_6 c_8 c_10 c_11 seg_": 714,
      "3 c_1 c_3 c_5 c_6 c_8 c_10 c_11 seg_": 715,
      "5 c_1 c_3 c_5 c_6 c_8 c_10 c_11 seg_": 716,
      "7 c_1 c_2 c_4 c_6 c_8 c_9 c_11 seg_0 c_1 c_2 c_4 c_6 c_8 c_9 c_11 seg_1": 717,
      "7 c_10 seg_1 c_": 718,
      "8 c_10 seg_3 c_": 719,
      "6 c_1 c_3 c_4 c_6 c_8 c_9 c_11 seg_7 c_1 c_3 c_4 c_6 c_8 c_9 c_11 seg_0 c_1 c_3 c_4 c_6 c_8 c_9 c_11 seg_1 c_1 c_3 c_4 c_6 c_8 c_9 c_11 seg_2 c_1 c_3 c_4 c_6 c_8 c_9 c_11 seg_3 c_1 c_3 c_4 c_6 c_8 c_9 c_11 seg_4 c_1 c_3 c_4 c_6 c_8 c_9 c_11 seg_5 c_1 c_3 c_4 c_6 c_8 c_9 c_11 seg_6 c_1 c_3 c_4 c_6 c_8 c_9 c_11 seg_7 c_1 c_3 c_4 c_6 c_8 c_9 c_11 seg_0 c_1 c_3 c_4 c_6 c_8 c_9 c_11 seg_1 c_1 c_3 c_4 c_6 c_8 c_9 c_11 seg_2 c_1 c_3 c_4 c_6 c_8 c_9 c_11 seg_3 c_1 c_3 c_4 c_6 c_8 c_9 c_11 seg_4 c_1 c_3 c_4 c_6 c_8 c_9 c_11 seg_5 c_1 c_3 c_4 c_6 c_8 c_9 c_11 seg_": 720,
      "7 c_11 seg_0 c_": 721,
      "7 c_1 c_3 c_5 c_6 c_8 c_10 c_11 seg_0 c_1 c_3 c_5 c_6 c_8 c_10 c_11 seg_": 722,
      "1 c_1 c_3 c_5 c_6 c_8 c_10 c_11 seg_2 c_1 c_3 c_5 c_6 c_8 c_10 c_11 seg_": 723,
      "5 c_1 c_3 c_5 c_6 c_8 c_10 c_11 seg_6 c_1 c_3 c_5 c_6 c_8 c_10 c_11 seg_": 724,
      "3 c_1 c_3 c_5 c_6 c_8 c_10 c_11 seg_4 c_1 c_3 c_5 c_6 c_8 c_10 c_11 seg_": 725,
      "4 c_1 c_3 c_4 c_6 c_8 c_10 c_11 seg_": 726,
      "7 c_1 c_3 c_4 c_6 c_8 c_10 c_11 seg_": 727,
      "7 c_0 c_1 c_3 c_5 c_7 c_8 c_10 seg_0 c_0 c_1 c_3 c_5 c_7 c_8 c_10 seg_1 c_0 c_1 c_3 c_5 c_7 c_8 c_10 seg_2 c_0 c_1 c_3 c_5 c_7 c_8 c_10 seg_3 c_0 c_1 c_3 c_5 c_7 c_8 c_10 seg_": 728,
      "3 c_1 c_3 c_4 c_6 c_8 c_10 c_11 seg_": 729,
      "6 c_0 c_1 c_3 c_5 c_6 c_8 c_10 seg_7 c_0 c_1 c_3 c_5 c_6 c_8 c_10 seg_0 c_0 c_1 c_3 c_5 c_6 c_8 c_10 seg_1 c_0 c_1 c_3 c_5 c_6 c_8 c_10 seg_": 730,
      "6 c_1 c_3 c_4 c_6 c_8 c_10 c_11 seg_": 731,
      "2 c_1 c_3 c_4 c_6 c_8 c_10 c_11 seg_": 732,
      "0 c_1 c_3 c_4 c_6 c_8 c_10 c_11 seg_1": 733,
      "5 c_1 c_3 c_4 c_6 c_8 c_10 c_11 seg_": 734,
      "2 c_0 c_1 c_3 c_5 c_6 c_8 c_10 seg_3 c_0 c_1 c_3 c_5 c_6 c_8 c_10 seg_4 c_0 c_1 c_3 c_5 c_6 c_8 c_10 seg_5 c_0 c_1 c_3 c_5 c_6 c_8 c_10 seg_": 735,
      "9 seg_1": 736,
      " c_1 c_2 c_4 c_6 c_8 c_9 c_11 seg_2 c_1 c_2 c_4 c_6 c_8 c_9 c_11 seg_3 c_1 c_2 c_4 c_6 c_8 c_9 c_11 seg_4 c_1 c_2 c_4 c_6 c_8 c_9 c_11 seg_": 737,
      " c_1 c_2 c_4 c_7 c_9 seg_": 738,
      "0 c_2 c_3 c_7 seg_": 739,
      "0 c_1 c_3 c_4 c_6 c_8 c_10 c_11 seg_1 c_1 c_3 c_4 c_6 c_8 c_10 c_11 seg_": 740,
      "4 c_1 c_3 c_4 c_6 c_8 c_10 c_11 seg_5 c_1 c_3 c_4 c_6 c_8 c_10 c_11 seg_": 741,
      "2 c_1 c_3 c_4 c_6 c_8 c_10 c_11 seg_3 c_1 c_3 c_4 c_6 c_8 c_10 c_11 seg_": 742,
      "5 c_1 c_2 c_4 c_6 c_8 c_9 c_11 seg_6 c_1 c_2 c_4 c_6 c_8 c_9 c_11 seg_7 c_1 c_2 c_4 c_6 c_8 c_9 c_11 seg_0 c_1 c_2 c_4 c_6 c_8 c_9 c_11 seg_1": 743,
      "6 c_1 c_3 c_4 c_6 c_8 c_10 c_11 seg_7 c_1 c_3 c_4 c_6 c_8 c_10 c_11 seg_": 744,
      "0 c_2 c_4 c_6 c_7 c_9 c_11 seg_1 c_2 c_4 c_6 c_7 c_9 c_11 seg_2 c_2 c_4 c_6 c_7 c_9 c_11 seg_3 c_2 c_4 c_6 c_7 c_9 c_11 seg_4 c_2 c_4 c_6 c_7 c_9 c_11 seg_5 c_2 c_4 c_6 c_7 c_9 c_11 seg_6 c_2 c_4 c_6 c_7 c_9 c_11 seg_7 c_2 c_4 c_6 c_7 c_9 c_11 seg_0 c_2 c_4 c_6 c_7 c_9 c_11 seg_1 c_2 c_4 c_6 c_7 c_9 c_11 seg_2 c_2 c_4 c_6 c_7 c_9 c_11 seg_3 c_2 c_4 c_6 c_7 c_9 c_11 seg_4 c_2 c_4 c_6 c_7 c_9 c_11 seg_5 c_2 c_4 c_6 c_7 c_9 c_11 seg_6 c_2 c_4 c_6 c_7 c_9 c_11 seg_7 c_2 c_4 c_6 c_7 c_9 c_11 seg_0 c_2 c_4 c_6 c_7 c_9 c_11 seg_1 c_2 c_4 c_6 c_7 c_9 c_11 seg_2 c_2 c_4 c_6 c_7 c_9 c_11 seg_3 c_2 c_4 c_6 c_7 c_9 c_11 seg_4 c_2 c_4 c_6 c_7 c_9 c_11 seg_5 c_2 c_4 c_6 c_7 c_9 c_11 seg_6 c_2 c_4 c_6 c_7 c_9 c_11 seg_7 c_2 c_4 c_6 c_7 c_9 c_11 seg_0 c_2 c_4 c_6 c_7 c_9 c_11 seg_1 c_2 c_4 c_6 c_7 c_9 c_11 seg_2 c_2 c_4 c_6 c_7 c_9 c_11 seg_3 c_2 c_4 c_6 c_7 c_9 c_11 seg_4 c_2 c_4 c_6 c_7 c_9 c_11 seg_5 c_2 c_4 c_6 c_7 c_9 c_11 seg_6 c_2 c_4 c_6 c_7 c_9 c_11 seg_7 c_2 c_4 c_6 c_7 c_9 c_11 seg_": 745,
      "7 c_0 c_2 c_4 c_6 c_7 c_9 c_11 seg_0 c_0 c_2 c_4 c_6 c_7 c_9 c_11 seg_1 c_0 c_2 c_4 c_6 c_7 c_9 c_11 seg_2 c_0 c_2 c_4 c_6 c_7 c_9 c_11 seg_3 c_0 c_2 c_4 c_6 c_7 c_9 c_11 seg_4 c_0 c_2 c_4 c_6 c_7 c_9 c_11 seg_5 c_0 c_2 c_4 c_6 c_7 c_9 c_11 seg_6 c_0 c_2 c_4 c_6 c_7 c_9 c_11 seg_7 c_0 c_2 c_4 c_6 c_7 c_9 c_11 seg_0 c_0 c_2 c_4 c_6 c_7 c_9 c_11 seg_1 c_0 c_2 c_4 c_6 c_7 c_9 c_11 seg_2 c_0 c_2 c_4 c_6 c_7 c_9 c_11 seg_3 c_0 c_2 c_4 c_6 c_7 c_9 c_11 seg_4 c_0 c_2 c_4 c_6 c_7 c_9 c_11 seg_5 c_0 c_2 c_4 c_6 c_7 c_9 c_11 seg_6 c_0 c_2 c_4 c_6 c_7 c_9 c_11 seg_": 746,
      "1 c_1 c_3 c_5 c_6 c_8 c_10 c_11 seg_2 c_1 c_3 c_5 c_6 c_8 c_10 c_11 seg_3 c_1 c_3 c_5 c_6 c_8 c_10 c_11 seg_4 c_1 c_3 c_5 c_6 c_8 c_10 c_11 seg_": 747,
      "5 c_1 c_3 c_5 c_6 c_8 c_10 c_11 seg_6 c_1 c_3 c_5 c_6 c_8 c_10 c_11 seg_7 c_1 c_3 c_5 c_6 c_8 c_10 c_11 seg_0 c_1 c_3 c_5 c_6 c_8 c_10 c_11 seg_": 748,
      "9 c_10 seg_0 c_": 749,
      "5 c_6 c_8 c_9 seg_": 750,
      "4 c_0 c_1 c_3 c_5 c_7 c_8 c_10 seg_5 c_0 c_1 c_3 c_5 c_7 c_8 c_10 seg_6 c_0 c_1 c_3 c_5 c_7 c_8 c_10 seg_7 c_0 c_1 c_3 c_5 c_7 c_8 c_10 seg_0 c_0 c_1 c_3 c_5 c_7 c_8 c_10 seg_1 c_0 c_1 c_3 c_5 c_7 c_8 c_10 seg_2 c_0 c_1 c_3 c_5 c_7 c_8 c_10 seg_3 c_0 c_1 c_3 c_5 c_7 c_8 c_10 seg_": 751,
      "2 c_0 c_1 c_2 c_3 c_4 c_5 c_6 c_7 c_8 c_9 c_10 c_11 seg_3 c_0 c_1 c_2 c_3 c_4 c_5 c_6 c_7 c_8 c_9 c_10 c_11 seg_4 c_0 c_1 c_2 c_3 c_4 c_5 c_6 c_7 c_8 c_9 c_10 c_11 seg_5 c_0 c_1 c_2 c_3 c_4 c_5 c_6 c_7 c_8 c_9 c_10 c_11 seg_6 c_0 c_1 c_2 c_3 c_4 c_5 c_6 c_7 c_8 c_9 c_10 c_11 seg_7 c_0 c_1 c_2 c_3 c_4 c_5 c_6 c_7 c_8 c_9 c_10 c_11 seg_0 c_0 c_1 c_2 c_3 c_4 c_5 c_6 c_7 c_8 c_9 c_10 c_11 seg_": 752,
      "0 c_1 c_3 c_4 c_6 c_8 c_10 c_11 seg_1 c_1 c_3 c_4 c_6 c_8 c_10 c_11 seg_2 c_1 c_3 c_4 c_6 c_8 c_10 c_11 seg_3 c_1 c_3 c_4 c_6 c_8 c_10 c_11 seg_": 753,
      "4 c_1 c_3 c_4 c_6 c_8 c_10 c_11 seg_5 c_1 c_3 c_4 c_6 c_8 c_10 c_11 seg_6 c_1 c_3 c_4 c_6 c_8 c_10 c_11 seg_7 c_1 c_3 c_4 c_6 c_8 c_10 c_11 seg_": 754,
      "2 c_0 c_1 c_3 c_5 c_6 c_8 c_10 seg_3 c_0 c_1 c_3 c_5 c_6 c_8 c_10 seg_4 c_0 c_1 c_3 c_5 c_6 c_8 c_10 seg_5 c_0 c_1 c_3 c_5 c_6 c_8 c_10 seg_6 c_0 c_1 c_3 c_5 c_6 c_8 c_10 seg_7 c_0 c_1 c_3 c_5 c_6 c_8 c_10 seg_0 c_0 c_1 c_3 c_5 c_6 c_8 c_10 seg_1 c_0 c_1 c_3 c_5 c_6 c_8 c_10 seg_": 755,
      "7 c_9 seg_1": 756,
      "0 c_3 c_5 c_6 c_": 757,
      "2 c_0 c_1 c_2 c_3 c_4 c_5 c_6 c_7 c_8 c_9 c_10 c_11 seg_3 c_0 c_1 c_2 c_3 c_4 c_5 c_6 c_7 c_8 c_9 c_10 c_11 seg_4 c_0 c_1 c_2 c_3 c_4 c_5 c_6 c_7 c_8 c_9 c_10 c_11 seg_5 c_0 c_1 c_2 c_3 c_4 c_5 c_6 c_7 c_8 c_9 c_10 c_11 seg_6 c_0 c_1 c_2 c_3 c_4 c_5 c_6 c_7 c_8 c_9 c_10 c_11 seg_7 c_0 c_1 c_2 c_3 c_4 c_5 c_6 c_7 c_8 c_9 c_10 c_11 seg_0 c_0 c_1 c_2 c_3 c_4 c_5 c_6 c_7 c_8 c_9 c_10 c_11 seg_1 c_": 758,
      "2 c_4 c_6 c_8 c_9 c_11 seg_": 759,
      "5 c_1 c_2 c_4 c_6 c_8 c_9 c_11 seg_6 c_1 c_2 c_4 c_6 c_8 c_9 c_11 seg_7 c_1 c_2 c_4 c_6 c_8 c_9 c_11 seg_0 c_1 c_2 c_4 c_6 c_8 c_9 c_11 seg_1 c_1 c_2 c_4 c_6 c_8 c_9 c_11 seg_2 c_1 c_2 c_4 c_6 c_8 c_9 c_11 seg_3 c_1 c_2 c_4 c_6 c_8 c_9 c_11 seg_4 c_1 c_2 c_4 c_6 c_8 c_9 c_11 seg_": 760,
      "5 c_6 c_8 c_9 c_11 seg_": 761,
      "1 c_1 c_3 c_5 c_6 c_8 c_10 c_11 seg_2 c_1 c_3 c_5 c_6 c_8 c_10 c_11 seg_3 c_1 c_3 c_5 c_6 c_8 c_10 c_11 seg_4 c_1 c_3 c_5 c_6 c_8 c_10 c_11 seg_5 c_1 c_3 c_5 c_6 c_8 c_10 c_11 seg_6 c_1 c_3 c_5 c_6 c_8 c_10 c_11 seg_7 c_1 c_3 c_5 c_6 c_8 c_10 c_11 seg_0 c_1 c_3 c_5 c_6 c_8 c_10 c_11 seg_": 762,
      "5 c_0 c_3 c_5 c_7 c_8 c_10 seg_6 c_0 c_3 c_5 c_7 c_8 c_10 seg_7 c_0 c_3 c_5 c_7 c_8 c_10 seg_0 c_0 c_3 c_5 c_7 c_8 c_10 seg_1 c_0 c_3 c_5 c_7 c_8 c_10 seg_2 c_0 c_3 c_5 c_7 c_8 c_10 seg_3 c_0 c_3 c_5 c_7 c_8 c_10 seg_4 c_0 c_3 c_5 c_7 c_8 c_10 seg_5 c_0 c_3 c_5 c_7 c_8 c_10 seg_6 c_0 c_3 c_5 c_7 c_8 c_10 seg_7 c_0 c_3 c_5 c_7 c_8 c_10 seg_0 c_0 c_3 c_5 c_7 c_8 c_10 seg_1 c_0 c_3 c_5 c_7 c_8 c_10 seg_2 c_0 c_3 c_5 c_7 c_8 c_10 seg_3 c_0 c_3 c_5 c_7 c_8 c_10 seg_4 c_0 c_3 c_5 c_7 c_8 c_10 seg_5 c_0 c_3 c_5 c_7 c_8 c_10 seg_6 c_0 c_3 c_5 c_7 c_8 c_10 seg_7 c_0 c_3 c_5 c_7 c_8 c_10 seg_0 c_0 c_3 c_5 c_7 c_8 c_10 seg_1 c_0 c_3 c_5 c_7 c_8 c_10 seg_2 c_0 c_3 c_5 c_7 c_8 c_10 seg_3 c_0 c_3 c_5 c_7 c_8 c_10 seg_4 c_0 c_3 c_5 c_7 c_8 c_10 seg_5 c_0 c_3 c_5 c_7 c_8 c_10 seg_6 c_0 c_3 c_5 c_7 c_8 c_10 seg_7 c_0 c_3 c_5 c_7 c_8 c_10 seg_0 c_0 c_3 c_5 c_7 c_8 c_10 seg_1 c_0 c_3 c_5 c_7 c_8 c_10 seg_2 c_0 c_3 c_5 c_7 c_8 c_10 seg_3 c_0 c_3 c_5 c_7 c_8 c_10 seg_4 c_0 c_3 c_5 c_7 c_8 c_10 seg_": 763,
      "4 c_1 c_3 c_4 c_6 c_8 c_10 c_11 seg_5 c_1 c_3 c_4 c_6 c_8 c_10 c_11 seg_6 c_1 c_3 c_4 c_6 c_8 c_10 c_11 seg_7 c_1 c_3 c_4 c_6 c_8 c_10 c_11 seg_0 c_1 c_3 c_4 c_6 c_8 c_10 c_11 seg_1 c_1 c_3 c_4 c_6 c_8 c_10 c_11 seg_2 c_1 c_3 c_4 c_6 c_8 c_10 c_11 seg_3 c_1 c_3 c_4 c_6 c_8 c_10 c_11 seg_": 764,
      "0 c_4 c_6 c_7 c_11 seg_": 765,
      "0 c_2 c_4 c_6 c_9 c_11 seg_": 766,
      "0 c_2 c_6 c_7 c_9 c_11 seg_1 c_": 767,
      "0 c_1 c_5 c_10 seg_": 768,
      "2 c_0 c_1 c_2 c_3 c_4 c_5 c_6 c_7 c_8 c_9 c_10 c_11 seg_3 c_0 c_1 c_2 c_3 c_4 c_5 c_6 c_7 c_8 c_9 c_10 c_11 seg_4 c_0 c_1 c_2 c_3 c_4 c_5 c_6 c_7 c_8 c_9 c_10 c_11 seg_5 c_0 c_1 c_2 c_3 c_4 c_5 c_6 c_7 c_8 c_9 c_10 c_11 seg_6 c_0 c_1 c_2 c_3 c_4 c_5 c_6 c_7 c_8 c_9 c_10 c_11 seg_7 c_0 c_1 c_2 c_3 c_4 c_5 c_6 c_7 c_8 c_9 c_10 c_11 seg_0 c_0 c_1 c_2 c_3 c_4 c_5 c_6 c_7 c_8 c_9 c_10 c_11 seg_1 c_0 c_1 c_2 c_3 c_4 c_5 c_6 c_7 c_8 c_9 c_10 c_11 seg_": 769,
      "2 c_0 c_1 c_3 c_5 c_6 c_8 c_10 seg_3 c_0 c_1 c_3 c_5 c_6 c_8 c_10 seg_4 c_0 c_1 c_3 c_5 c_6 c_8 c_10 seg_5 c_0 c_1 c_3 c_5 c_6 c_8 c_10 seg_6 c_0 c_1 c_3 c_5 c_6 c_8 c_10 seg_7 c_0 c_1 c_3 c_5 c_6 c_8 c_10 seg_0 c_0 c_1 c_3 c_5 c_6 c_8 c_10 seg_1 c_0 c_1 c_3 c_5 c_6 c_8 c_10 seg_2 c_0 c_1 c_3 c_5 c_6 c_8 c_10 seg_3 c_0 c_1 c_3 c_5 c_6 c_8 c_10 seg_4 c_0 c_1 c_3 c_5 c_6 c_8 c_10 seg_5 c_0 c_1 c_3 c_5 c_6 c_8 c_10 seg_6 c_0 c_1 c_3 c_5 c_6 c_8 c_10 seg_7 c_0 c_1 c_3 c_5 c_6 c_8 c_10 seg_0 c_0 c_1 c_3 c_5 c_6 c_8 c_10 seg_1 c_0 c_1 c_3 c_5 c_6 c_8 c_10 seg_": 770,
      "0 c_4 c_5 c_7 c_8 c_10 seg_": 771,
      "8 c_10 seg_5 c_": 772,
      "4 c_0 c_1 c_3 c_5 c_7 c_8 c_10 seg_5 c_0 c_1 c_3 c_5 c_7 c_8 c_10 seg_6 c_0 c_1 c_3 c_5 c_7 c_8 c_10 seg_7 c_0 c_1 c_3 c_5 c_7 c_8 c_10 seg_0 c_0 c_1 c_3 c_5 c_7 c_8 c_10 seg_1 c_0 c_1 c_3 c_5 c_7 c_8 c_10 seg_2 c_0 c_1 c_3 c_5 c_7 c_8 c_10 seg_3 c_0 c_1 c_3 c_5 c_7 c_8 c_10 seg_4 c_0 c_1 c_3 c_5 c_7 c_8 c_10 seg_5 c_0 c_1 c_3 c_5 c_7 c_8 c_10 seg_6 c_0 c_1 c_3 c_5 c_7 c_8 c_10 seg_7 c_0 c_1 c_3 c_5 c_7 c_8 c_10 seg_0 c_0 c_1 c_3 c_5 c_7 c_8 c_10 seg_1 c_0 c_1 c_3 c_5 c_7 c_8 c_10 seg_2 c_0 c_1 c_3 c_5 c_7 c_8 c_10 seg_3 c_0 c_1 c_3 c_5 c_7 c_8 c_10 seg_": 773,
      "8 c_10 seg_1 c_": 774,
      "8 c_10 seg_7 c_": 775,
      "8 c_10 seg_6 c_": 776,
      "8 c_10 seg_2 c_": 777,
      "8 c_10 seg_4 c_": 778,
      "0 c_2 c_4 c_5 c_7 c_9 seg_4 c_0 c_2 c_4 c_5 c_7 c_9 seg_5 c_0 c_2 c_4 c_5 c_7 c_9 seg_6 c_0 c_2 c_4 c_5 c_7 c_9 seg_7 c_0 c_2 c_4 c_5 c_7 c_9 seg_0 c_0 c_2 c_4 c_5 c_7 c_9 seg_1 c_0 c_2 c_4 c_5 c_7 c_9 seg_2 c_0 c_2 c_4 c_5 c_7 c_9 seg_3 c_0 c_2 c_4 c_5 c_7 c_9 seg_4 c_0 c_2 c_4 c_5 c_7 c_9 seg_5 c_0 c_2 c_4 c_5 c_7 c_9 seg_6 c_0 c_2 c_4 c_5 c_7 c_9 seg_7 c_0 c_2 c_4 c_5 c_7 c_9 seg_0 c_0 c_2 c_4 c_5 c_7 c_9 seg_1 c_0 c_2 c_4 c_5 c_7 c_9 seg_2 c_0 c_2 c_4 c_5 c_7 c_9 seg_3 c_0 c_2 c_4 c_5 c_7 c_9 seg_4 c_0 c_2 c_4 c_5 c_7 c_9 seg_5 c_0 c_2 c_4 c_5 c_7 c_9 seg_6 c_0 c_2 c_4 c_5 c_7 c_9 seg_7 c_0 c_2 c_4 c_5 c_7 c_9 seg_0 c_0 c_2 c_4 c_5 c_7 c_9 seg_1 c_0 c_2 c_4 c_5 c_7 c_9 seg_2 c_0 c_2 c_4 c_5 c_7 c_9 seg_3 c_0 c_2 c_4 c_5 c_7 c_9 seg_4 c_0 c_2 c_4 c_5 c_7 c_9 seg_5 c_0 c_2 c_4 c_5 c_7 c_9 seg_6 c_0 c_2 c_4 c_5 c_7 c_9 seg_7 c_0 c_2 c_4 c_5 c_7 c_9 seg_0 c_0 c_2 c_4 c_5 c_7 c_9 seg_1 c_0 c_2 c_4 c_5 c_7 c_9 seg_2 c_0 c_2 c_4 c_5 c_7 c_9 seg_3 c_": 779,
      "2 c_3 c_5 c_6 c_8 c_10 seg_": 780,
      "4 c_8 c_9 seg_": 781,
      "5 c_1 c_2 c_4 c_6 c_8 c_9 c_11 seg_6 c_1 c_2 c_4 c_6 c_8 c_9 c_11 seg_7 c_1 c_2 c_4 c_6 c_8 c_9 c_11 seg_0 c_1 c_2 c_4 c_6 c_8 c_9 c_11 seg_1 c_1 c_2 c_4 c_6 c_8 c_9 c_11 seg_2 c_1 c_2 c_4 c_6 c_8 c_9 c_11 seg_3 c_1 c_2 c_4 c_6 c_8 c_9 c_11 seg_4 c_1 c_2 c_4 c_6 c_8 c_9 c_11 seg_5 c_1 c_2 c_4 c_6 c_8 c_9 c_11 seg_6 c_1 c_2 c_4 c_6 c_8 c_9 c_11 seg_7 c_1 c_2 c_4 c_6 c_8 c_9 c_11 seg_0 c_1 c_2 c_4 c_6 c_8 c_9 c_11 seg_1 c_1 c_2 c_4 c_6 c_8 c_9 c_11 seg_2 c_1 c_2 c_4 c_6 c_8 c_9 c_11 seg_3 c_1 c_2 c_4 c_6 c_8 c_9 c_11 seg_4 c_1 c_2 c_4 c_6 c_8 c_9 c_11 seg_": 782,
      "1 c_1 c_3 c_5 c_6 c_8 c_10 c_11 seg_2 c_1 c_3 c_5 c_6 c_8 c_10 c_11 seg_3 c_1 c_3 c_5 c_6 c_8 c_10 c_11 seg_4 c_1 c_3 c_5 c_6 c_8 c_10 c_11 seg_5 c_1 c_3 c_5 c_6 c_8 c_10 c_11 seg_6 c_1 c_3 c_5 c_6 c_8 c_10 c_11 seg_7 c_1 c_3 c_5 c_6 c_8 c_10 c_11 seg_0 c_1 c_3 c_5 c_6 c_8 c_10 c_11 seg_1 c_1 c_3 c_5 c_6 c_8 c_10 c_11 seg_2 c_1 c_3 c_5 c_6 c_8 c_10 c_11 seg_3 c_1 c_3 c_5 c_6 c_8 c_10 c_11 seg_4 c_1 c_3 c_5 c_6 c_8 c_10 c_11 seg_5 c_1 c_3 c_5 c_6 c_8 c_10 c_11 seg_6 c_1 c_3 c_5 c_6 c_8 c_10 c_11 seg_7 c_1 c_3 c_5 c_6 c_8 c_10 c_11 seg_0 c_1 c_3 c_5 c_6 c_8 c_10 c_11 seg_": 783,
      "5 c_6 c_8 c_11 seg_": 784,
      "4 c_6 c_8 seg_": 785,
      "0 c_3 c_5 c_10 seg_": 786,
      "0 c_1 c_4 c_5 c_6 c_": 787,
      "8 c_9 seg_3 c_": 788,
      "4 c_1 c_3 c_4 c_6 c_8 c_10 c_11 seg_5 c_1 c_3 c_4 c_6 c_8 c_10 c_11 seg_6 c_1 c_3 c_4 c_6 c_8 c_10 c_11 seg_7 c_1 c_3 c_4 c_6 c_8 c_10 c_11 seg_0 c_1 c_3 c_4 c_6 c_8 c_10 c_11 seg_1 c_1 c_3 c_4 c_6 c_8 c_10 c_11 seg_2 c_1 c_3 c_4 c_6 c_8 c_10 c_11 seg_3 c_1 c_3 c_4 c_6 c_8 c_10 c_11 seg_4 c_1 c_3 c_4 c_6 c_8 c_10 c_11 seg_5 c_1 c_3 c_4 c_6 c_8 c_10 c_11 seg_6 c_1 c_3 c_4 c_6 c_8 c_10 c_11 seg_7 c_1 c_3 c_4 c_6 c_8 c_10 c_11 seg_0 c_1 c_3 c_4 c_6 c_8 c_10 c_11 seg_1 c_1 c_3 c_4 c_6 c_8 c_10 c_11 seg_2 c_1 c_3 c_4 c_6 c_8 c_10 c_11 seg_3 c_1 c_3 c_4 c_6 c_8 c_10 c_11 seg_": 789,
      "9 seg_0 c_": 790,
      "6 c_10 c_11 seg_1": 791,
      "0 c_1 c_5 c_6 c_8 seg_": 792,
      "0 c_1 c_2 c_4 c_6 c_9 c_11 seg_1 c_1 c_2 c_4 c_6 c_9 c_11 seg_2 c_1 c_2 c_4 c_6 c_9 c_11 seg_3 c_1 c_2 c_4 c_6 c_9 c_11 seg_4 c_1 c_2 c_4 c_6 c_9 c_11 seg_5 c_1 c_2 c_4 c_6 c_9 c_11 seg_6 c_1 c_2 c_4 c_6 c_9 c_11 seg_7 c_1 c_2 c_4 c_6 c_9 c_11 seg_0 c_1 c_2 c_4 c_6 c_9 c_11 seg_1 c_1 c_2 c_4 c_6 c_9 c_11 seg_2 c_1 c_2 c_4 c_6 c_9 c_11 seg_3 c_1 c_2 c_4 c_6 c_9 c_11 seg_4 c_1 c_2 c_4 c_6 c_9 c_11 seg_5 c_1 c_2 c_4 c_6 c_9 c_11 seg_6 c_1 c_2 c_4 c_6 c_9 c_11 seg_7 c_1 c_2 c_4 c_6 c_9 c_11 seg_0 c_1 c_2 c_4 c_6 c_9 c_11 seg_1 c_1 c_2 c_4 c_6 c_9 c_11 seg_2 c_1 c_2 c_4 c_6 c_9 c_11 seg_3 c_1 c_2 c_4 c_6 c_9 c_11 seg_4 c_1 c_2 c_4 c_6 c_9 c_11 seg_5 c_1 c_2 c_4 c_6 c_9 c_11 seg_6 c_1 c_2 c_4 c_6 c_9 c_11 seg_7 c_1 c_2 c_4 c_6 c_9 c_11 seg_0 c_1 c_2 c_4 c_6 c_9 c_11 seg_1 c_1 c_2 c_4 c_6 c_9 c_11 seg_2 c_1 c_2 c_4 c_6 c_9 c_11 seg_3 c_1 c_2 c_4 c_6 c_9 c_11 seg_4 c_1 c_2 c_4 c_6 c_9 c_11 seg_5 c_1 c_2 c_4 c_6 c_9 c_11 seg_6 c_1 c_2 c_4 c_6 c_9 c_11 seg_7 c_1 c_2 c_4 c_6 c_9 c_11 seg_": 793,
      "4 c_6 c_10 c_11 seg_": 794,
      " c_1 c_2 c_4 c_5 c_7 c_9 seg_": 795,
      "8 c_9 seg_5 c_": 796,
      "0 c_0 c_2 c_5 c_7 c_9 c_10 seg_1 c_0 c_2 c_5 c_7 c_9 c_10 seg_2 c_0 c_2 c_5 c_7 c_9 c_10 seg_3 c_0 c_2 c_5 c_7 c_9 c_10 seg_4 c_0 c_2 c_5 c_7 c_9 c_10 seg_5 c_0 c_2 c_5 c_7 c_9 c_10 seg_6 c_0 c_2 c_5 c_7 c_9 c_10 seg_7 c_0 c_2 c_5 c_7 c_9 c_10 seg_0 c_0 c_2 c_5 c_7 c_9 c_10 seg_1 c_0 c_2 c_5 c_7 c_9 c_10 seg_2 c_0 c_2 c_5 c_7 c_9 c_10 seg_3 c_0 c_2 c_5 c_7 c_9 c_10 seg_4 c_0 c_2 c_5 c_7 c_9 c_10 seg_5 c_0 c_2 c_5 c_7 c_9 c_10 seg_6 c_0 c_2 c_5 c_7 c_9 c_10 seg_7 c_0 c_2 c_5 c_7 c_9 c_10 seg_0 c_0 c_2 c_5 c_7 c_9 c_10 seg_1 c_0 c_2 c_5 c_7 c_9 c_10 seg_2 c_0 c_2 c_5 c_7 c_9 c_10 seg_3 c_0 c_2 c_5 c_7 c_9 c_10 seg_4 c_0 c_2 c_5 c_7 c_9 c_10 seg_5 c_0 c_2 c_5 c_7 c_9 c_10 seg_6 c_0 c_2 c_5 c_7 c_9 c_10 seg_7 c_0 c_2 c_5 c_7 c_9 c_10 seg_0 c_0 c_2 c_5 c_7 c_9 c_10 seg_1 c_0 c_2 c_5 c_7 c_9 c_10 seg_2 c_0 c_2 c_5 c_7 c_9 c_10 seg_3 c_0 c_2 c_5 c_7 c_9 c_10 seg_4 c_0 c_2 c_5 c_7 c_9 c_10 seg_5 c_0 c_2 c_5 c_7 c_9 c_10 seg_6 c_0 c_2 c_5 c_7 c_9 c_10 seg_7 c_0 c_2 c_5 c_7 c_9 c_10 seg_": 797,
      "8 c_9 seg_6 c_": 798,
      "8 c_9 seg_1 c_": 799,
      "8 c_9 seg_7 c_": 800,
      "8 c_9 seg_4 c_": 801,
      "8 c_9 seg_2 c_": 802,
      "0 c_2 c_5 c_10 seg_": 803,
      "2 c_3 c_5 c_7 c_8 c_10 seg_3 c_": 804,
      "7 c_10 seg_0 c_": 805,
      "0 c_2 c_4 c_7 c_9 seg_1 c_": 806,
      "6 c_9 c_11 seg_": 807,
      "0 c_0 c_2 c_3 c_5 c_7 c_10 seg_1 c_0 c_2 c_3 c_5 c_7 c_10 seg_2 c_0 c_2 c_3 c_5 c_7 c_10 seg_3 c_0 c_2 c_3 c_5 c_7 c_10 seg_4 c_0 c_2 c_3 c_5 c_7 c_10 seg_5 c_0 c_2 c_3 c_5 c_7 c_10 seg_6 c_0 c_2 c_3 c_5 c_7 c_10 seg_7 c_0 c_2 c_3 c_5 c_7 c_10 seg_0 c_0 c_2 c_3 c_5 c_7 c_10 seg_1 c_0 c_2 c_3 c_5 c_7 c_10 seg_2 c_0 c_2 c_3 c_5 c_7 c_10 seg_3 c_0 c_2 c_3 c_5 c_7 c_10 seg_4 c_0 c_2 c_3 c_5 c_7 c_10 seg_5 c_0 c_2 c_3 c_5 c_7 c_10 seg_6 c_0 c_2 c_3 c_5 c_7 c_10 seg_7 c_0 c_2 c_3 c_5 c_7 c_10 seg_0 c_0 c_2 c_3 c_5 c_7 c_10 seg_1 c_0 c_2 c_3 c_5 c_7 c_10 seg_2 c_0 c_2 c_3 c_5 c_7 c_10 seg_3 c_0 c_2 c_3 c_5 c_7 c_10 seg_4 c_0 c_2 c_3 c_5 c_7 c_10 seg_5 c_0 c_2 c_3 c_5 c_7 c_10 seg_6 c_0 c_2 c_3 c_5 c_7 c_10 seg_7 c_0 c_2 c_3 c_5 c_7 c_10 seg_0 c_0 c_2 c_3 c_5 c_7 c_10 seg_1 c_0 c_2 c_3 c_5 c_7 c_10 seg_2 c_0 c_2 c_3 c_5 c_7 c_10 seg_3 c_0 c_2 c_3 c_5 c_7 c_10 seg_4 c_0 c_2 c_3 c_5 c_7 c_10 seg_5 c_0 c_2 c_3 c_5 c_7 c_10 seg_6 c_0 c_2 c_3 c_5 c_7 c_10 seg_7 c_0 c_2 c_3 c_5 c_7 c_10 seg_": 808,
      " c_1 c_2 c_6 c_11 seg_": 809,
      "0 c_1 c_3 c_4 c_6 c_8 c_9 seg_": 810,
      "4 c_6 c_9 seg_": 811,
      "9 c_11 seg_1": 812,
      " c_1 c_3 c_4 c_8 seg_": 813,
      "7 c_8 c_11 seg_1 c_": 814,
      "7 c_8 c_11 seg_6 c_": 815,
      "7 c_8 c_11 seg_7 c_": 816,
      "7 c_8 c_11 seg_5 c_": 817,
      "7 c_8 c_11 seg_3 c_": 818,
      "7 c_8 c_11 seg_4 c_": 819,
      "2 c_4 c_5 c_6 c_": 820,
      "0 c_3 c_4 c_6 c_7 c_9 c_11 seg_": 821,
      "2 c_3 c_7 c_8 c_10 seg_": 822,
      "3 c_5 c_8 c_10 c_11 seg_": 823,
      "5 c_10 c_11 seg_": 824,
      "0 c_1 c_5 c_8 seg_": 825,
      "0 c_4 c_5 c_9 c_11 seg_": 826,
      "7 c_8 c_11 seg_2 c_": 827,
      "6 c_8 c_10 c_11 seg_1 c_1 c_": 828,
      "0 c_4 c_6 c_7 c_9 c_11 seg_1 c_": 829,
      " c_1 c_2 c_4 c_7 c_9 c_11 seg_": 830,
      "8 c_9 seg_0 c_": 831,
      "7 c_9 c_11 seg_7 c_": 832,
      "7 c_9 c_11 seg_6 c_": 833,
      "3 c_5 c_8 seg_": 834,
      "0 c_1 c_4 c_5 c_7 c_8 c_10 seg_": 835,
      "7 c_9 c_11 seg_5 c_": 836,
      "7 seg_6 c_": 837,
      "7 c_9 c_11 seg_4 c_": 838,
      "7 seg_7 c_": 839,
      "7 seg_5 c_": 840,
      "7 seg_4 c_": 841,
      "7 seg_3 c_": 842,
      "0 c_2 c_4 c_7 c_11 seg_1 c_": 843,
      "7 c_1 c_2 c_3 c_": 844,
      "5 c_1 c_2 c_3 c_": 845,
      "6 c_1 c_2 c_3 c_": 846,
      "3 c_1 c_2 c_3 c_": 847,
      "2 c_1 c_2 c_3 c_": 848,
      "0 c_1 c_4 c_8 c_9 c_11 seg_": 849,
      "4 c_1 c_2 c_3 c_": 850,
      "0 c_1 c_3 c_5 c_6 c_8 c_10 seg_1 c_1 c_3 c_5 c_6 c_8 c_10 seg_2 c_1 c_3 c_5 c_6 c_8 c_10 seg_3 c_1 c_3 c_5 c_6 c_8 c_10 seg_4 c_1 c_3 c_5 c_6 c_8 c_10 seg_5 c_1 c_3 c_5 c_6 c_8 c_10 seg_6 c_1 c_3 c_5 c_6 c_8 c_10 seg_7 c_1 c_3 c_5 c_6 c_8 c_10 seg_0 c_1 c_3 c_5 c_6 c_8 c_10 seg_1 c_1 c_3 c_5 c_6 c_8 c_10 seg_2 c_1 c_3 c_5 c_6 c_8 c_10 seg_3 c_1 c_3 c_5 c_6 c_8 c_10 seg_4 c_1 c_3 c_5 c_6 c_8 c_10 seg_5 c_1 c_3 c_5 c_6 c_8 c_10 seg_6 c_1 c_3 c_5 c_6 c_8 c_10 seg_7 c_1 c_3 c_5 c_6 c_8 c_10 seg_0 c_1 c_3 c_5 c_6 c_8 c_10 seg_1 c_1 c_3 c_5 c_6 c_8 c_10 seg_2 c_1 c_3 c_5 c_6 c_8 c_10 seg_3 c_1 c_3 c_5 c_6 c_8 c_10 seg_4 c_1 c_3 c_5 c_6 c_8 c_10 seg_5 c_1 c_3 c_5 c_6 c_8 c_10 seg_6 c_1 c_3 c_5 c_6 c_8 c_10 seg_7 c_1 c_3 c_5 c_6 c_8 c_10 seg_0 c_1 c_3 c_5 c_6 c_8 c_10 seg_1 c_1 c_3 c_5 c_6 c_8 c_10 seg_2 c_1 c_3 c_5 c_6 c_8 c_10 seg_3 c_1 c_3 c_5 c_6 c_8 c_10 seg_4 c_1 c_3 c_5 c_6 c_8 c_10 seg_5 c_1 c_3 c_5 c_6 c_8 c_10 seg_6 c_1 c_3 c_5 c_6 c_8 c_10 seg_7 c_1 c_3 c_5 c_6 c_8 c_10 seg_": 851,
      "5 c_1 c_4 c_6 c_8 c_9 c_11 seg_6 c_1 c_4 c_6 c_8 c_9 c_11 seg_7 c_1 c_4 c_6 c_8 c_9 c_11 seg_0 c_1 c_4 c_6 c_8 c_9 c_11 seg_1 c_1 c_4 c_6 c_8 c_9 c_11 seg_2 c_1 c_4 c_6 c_8 c_9 c_11 seg_3 c_1 c_4 c_6 c_8 c_9 c_11 seg_4 c_1 c_4 c_6 c_8 c_9 c_11 seg_5 c_1 c_4 c_6 c_8 c_9 c_11 seg_6 c_1 c_4 c_6 c_8 c_9 c_11 seg_7 c_1 c_4 c_6 c_8 c_9 c_11 seg_0 c_1 c_4 c_6 c_8 c_9 c_11 seg_1 c_1 c_4 c_6 c_8 c_9 c_11 seg_2 c_1 c_4 c_6 c_8 c_9 c_11 seg_3 c_1 c_4 c_6 c_8 c_9 c_11 seg_4 c_1 c_4 c_6 c_8 c_9 c_11 seg_5 c_1 c_4 c_6 c_8 c_9 c_11 seg_6 c_1 c_4 c_6 c_8 c_9 c_11 seg_7 c_1 c_4 c_6 c_8 c_9 c_11 seg_0 c_1 c_4 c_6 c_8 c_9 c_11 seg_1 c_1 c_4 c_6 c_8 c_9 c_11 seg_2 c_1 c_4 c_6 c_8 c_9 c_11 seg_3 c_1 c_4 c_6 c_8 c_9 c_11 seg_4 c_1 c_4 c_6 c_8 c_9 c_11 seg_5 c_1 c_4 c_6 c_8 c_9 c_11 seg_6 c_1 c_4 c_6 c_8 c_9 c_11 seg_7 c_1 c_4 c_6 c_8 c_9 c_11 seg_0 c_1 c_4 c_6 c_8 c_9 c_11 seg_1 c_1 c_4 c_6 c_8 c_9 c_11 seg_2 c_1 c_4 c_6 c_8 c_9 c_11 seg_3 c_1 c_4 c_6 c_8 c_9 c_11 seg_4 c_1 c_4 c_6 c_8 c_9 c_11 seg_": 852,
      "8 c_10 seg_0 c_": 853,
      "7 seg_2 c_": 854,
      "3 c_0 c_1 c_3 c_5 c_8 c_10 seg_4 c_0 c_1 c_3 c_5 c_8 c_10 seg_5 c_0 c_1 c_3 c_5 c_8 c_10 seg_6 c_0 c_1 c_3 c_5 c_8 c_10 seg_7 c_0 c_1 c_3 c_5 c_8 c_10 seg_0 c_0 c_1 c_3 c_5 c_8 c_10 seg_1 c_0 c_1 c_3 c_5 c_8 c_10 seg_2 c_0 c_1 c_3 c_5 c_8 c_10 seg_3 c_0 c_1 c_3 c_5 c_8 c_10 seg_4 c_0 c_1 c_3 c_5 c_8 c_10 seg_5 c_0 c_1 c_3 c_5 c_8 c_10 seg_6 c_0 c_1 c_3 c_5 c_8 c_10 seg_7 c_0 c_1 c_3 c_5 c_8 c_10 seg_0 c_0 c_1 c_3 c_5 c_8 c_10 seg_1 c_0 c_1 c_3 c_5 c_8 c_10 seg_2 c_0 c_1 c_3 c_5 c_8 c_10 seg_3 c_0 c_1 c_3 c_5 c_8 c_10 seg_4 c_0 c_1 c_3 c_5 c_8 c_10 seg_5 c_0 c_1 c_3 c_5 c_8 c_10 seg_6 c_0 c_1 c_3 c_5 c_8 c_10 seg_7 c_0 c_1 c_3 c_5 c_8 c_10 seg_0 c_0 c_1 c_3 c_5 c_8 c_10 seg_1 c_0 c_1 c_3 c_5 c_8 c_10 seg_2 c_0 c_1 c_3 c_5 c_8 c_10 seg_3 c_0 c_1 c_3 c_5 c_8 c_10 seg_4 c_0 c_1 c_3 c_5 c_8 c_10 seg_5 c_0 c_1 c_3 c_5 c_8 c_10 seg_6 c_0 c_1 c_3 c_5 c_8 c_10 seg_7 c_0 c_1 c_3 c_5 c_8 c_10 seg_0 c_0 c_1 c_3 c_5 c_8 c_10 seg_1 c_0 c_1 c_3 c_5 c_8 c_10 seg_2 c_0 c_1 c_3 c_5 c_8 c_10 seg_": 855,
      "0 c_3 c_5 c_6 c_8 c_10 seg_": 856,
      " c_1 c_2 c_6 c_7 c_9 seg_": 857,
      "0 c_2 c_4 c_5 c_6 c_": 858,
      "0 c_3 c_5 c_6 c_10 seg_": 859,
      " c_1 c_2 c_6 c_10 c_11 seg_": 860,
      "7 c_10 c_11 seg_3 c_": 861,
      "2 c_4 c_6 c_9 c_11 seg_3 c_": 862,
      "7 c_10 c_11 seg_6 c_": 863,
      "7 c_10 c_11 seg_1 c_": 864,
      "7 c_10 c_11 seg_5 c_": 865,
      "5 c_11 seg_": 866,
      "4 c_1 c_3 c_6 c_8 c_10 c_11 seg_5 c_1 c_3 c_6 c_8 c_10 c_11 seg_6 c_1 c_3 c_6 c_8 c_10 c_11 seg_7 c_1 c_3 c_6 c_8 c_10 c_11 seg_0 c_1 c_3 c_6 c_8 c_10 c_11 seg_1 c_1 c_3 c_6 c_8 c_10 c_11 seg_2 c_1 c_3 c_6 c_8 c_10 c_11 seg_3 c_1 c_3 c_6 c_8 c_10 c_11 seg_4 c_1 c_3 c_6 c_8 c_10 c_11 seg_5 c_1 c_3 c_6 c_8 c_10 c_11 seg_6 c_1 c_3 c_6 c_8 c_10 c_11 seg_7 c_1 c_3 c_6 c_8 c_10 c_11 seg_0 c_1 c_3 c_6 c_8 c_10 c_11 seg_1 c_1 c_3 c_6 c_8 c_10 c_11 seg_2 c_1 c_3 c_6 c_8 c_10 c_11 seg_3 c_1 c_3 c_6 c_8 c_10 c_11 seg_4 c_1 c_3 c_6 c_8 c_10 c_11 seg_5 c_1 c_3 c_6 c_8 c_10 c_11 seg_6 c_1 c_3 c_6 c_8 c_10 c_11 seg_7 c_1 c_3 c_6 c_8 c_10 c_11 seg_0 c_1 c_3 c_6 c_8 c_10 c_11 seg_1 c_1 c_3 c_6 c_8 c_10 c_11 seg_2 c_1 c_3 c_6 c_8 c_10 c_11 seg_3 c_1 c_3 c_6 c_8 c_10 c_11 seg_4 c_1 c_3 c_6 c_8 c_10 c_11 seg_5 c_1 c_3 c_6 c_8 c_10 c_11 seg_6 c_1 c_3 c_6 c_8 c_10 c_11 seg_7 c_1 c_3 c_6 c_8 c_10 c_11 seg_0 c_1 c_3 c_6 c_8 c_10 c_11 seg_1 c_1 c_3 c_6 c_8 c_10 c_11 seg_2 c_1 c_3 c_6 c_8 c_10 c_11 seg_3 c_1 c_3 c_6 c_8 c_10 c_11 seg_": 867,
      "7 c_10 c_11 seg_7 c_": 868,
      "7 c_10 c_11 seg_4 c_": 869,
      "2 c_3 c_5 c_6 c_8 c_10 c_11 seg_": 870,
      "0 c_4 c_5 c_6 c_": 871,
      "7 seg_1 c_": 872,
      "0 c_4 c_6 c_": 873,
      "8 seg_5 c_": 874,
      " c_1 c_2 c_4 c_5 c_9 seg_": 875,
      " c_1 c_2 c_6 c_9 seg_": 876,
      "7 c_9 c_11 seg_3 c_": 877,
      "8 seg_6 c_": 878,
      "0 c_2 c_4 c_7 c_9 seg_7 c_": 879,
      "0 c_3 c_4 c_6 c_8 c_9 c_11 seg_": 880,
      "8 seg_4 c_": 881,
      "0 c_0 c_2 c_4 c_7 c_9 seg_1 c_": 882,
      "5 c_0 c_2 c_4 c_7 c_9 seg_": 883,
      "8 seg_3 c_": 884,
      "2 c_0 c_2 c_4 c_7 c_9 seg_": 885,
      "4 c_0 c_2 c_4 c_7 c_9 seg_": 886,
      "7 c_10 c_11 seg_2 c_": 887,
      "8 seg_1 c_": 888,
      "3 c_0 c_2 c_4 c_7 c_9 seg_": 889,
      "8 c_11 seg_1": 890,
      "0 c_2 c_4 c_5 c_8 c_9 c_11 seg_": 891,
      "6 c_0 c_2 c_4 c_7 c_9 seg_7 c_": 892,
      "7 c_9 c_11 seg_2 c_": 893,
      "8 seg_2 c_": 894,
      "8 seg_7 c_": 895,
      "0 c_2 c_4 c_7 c_9 seg_0 c_0 c_2 c_4 c_7 c_9 seg_1 c_": 896,
      "0 c_2 c_4 c_7 c_9 seg_2 c_0 c_2 c_4 c_7 c_9 seg_": 897,
      "0 c_3 c_5 c_8 c_10 seg_1 c_": 898,
      "4 c_0 c_2 c_4 c_7 c_9 seg_5 c_0 c_2 c_4 c_7 c_9 seg_": 899,
      "0 c_2 c_4 c_5 c_7 c_11 seg_1 c_": 900,
      "6 c_0 c_2 c_4 c_7 c_11 seg_": 901,
      "6 c_11 seg_1": 902,
      "3 c_0 c_2 c_4 c_7 c_11 seg_": 903,
      "7 c_0 c_2 c_4 c_7 c_11 seg_": 904,
      "0 c_1 c_2 c_5 c_6 c_": 905,
      "2 c_0 c_2 c_4 c_7 c_11 seg_": 906,
      "0 c_0 c_2 c_4 c_7 c_11 seg_1 c_": 907,
      "5 c_0 c_2 c_4 c_7 c_11 seg_": 908,
      "3 c_0 c_2 c_3 c_5 c_7 c_8 c_10 seg_4 c_0 c_2 c_3 c_5 c_7 c_8 c_10 seg_5 c_0 c_2 c_3 c_5 c_7 c_8 c_10 seg_6 c_0 c_2 c_3 c_5 c_7 c_8 c_10 seg_7 c_0 c_2 c_3 c_5 c_7 c_8 c_10 seg_0 c_0 c_2 c_3 c_5 c_7 c_8 c_10 seg_1 c_0 c_2 c_3 c_5 c_7 c_8 c_10 seg_2 c_0 c_2 c_3 c_5 c_7 c_8 c_10 seg_3 c_0 c_2 c_3 c_5 c_7 c_8 c_10 seg_4 c_0 c_2 c_3 c_5 c_7 c_8 c_10 seg_5 c_0 c_2 c_3 c_5 c_7 c_8 c_10 seg_6 c_0 c_2 c_3 c_5 c_7 c_8 c_10 seg_7 c_0 c_2 c_3 c_5 c_7 c_8 c_10 seg_0 c_0 c_2 c_3 c_5 c_7 c_8 c_10 seg_1 c_0 c_2 c_3 c_5 c_7 c_8 c_10 seg_2 c_0 c_2 c_3 c_5 c_7 c_8 c_10 seg_3 c_0 c_2 c_3 c_5 c_7 c_8 c_10 seg_4 c_0 c_2 c_3 c_5 c_7 c_8 c_10 seg_5 c_0 c_2 c_3 c_5 c_7 c_8 c_10 seg_6 c_0 c_2 c_3 c_5 c_7 c_8 c_10 seg_7 c_0 c_2 c_3 c_5 c_7 c_8 c_10 seg_0 c_0 c_2 c_3 c_5 c_7 c_8 c_10 seg_1 c_0 c_2 c_3 c_5 c_7 c_8 c_10 seg_2 c_0 c_2 c_3 c_5 c_7 c_8 c_10 seg_3 c_0 c_2 c_3 c_5 c_7 c_8 c_10 seg_4 c_0 c_2 c_3 c_5 c_7 c_8 c_10 seg_5 c_0 c_2 c_3 c_5 c_7 c_8 c_10 seg_6 c_0 c_2 c_3 c_5 c_7 c_8 c_10 seg_7 c_0 c_2 c_3 c_5 c_7 c_8 c_10 seg_0 c_0 c_2 c_3 c_5 c_7 c_8 c_10 seg_1 c_0 c_2 c_3 c_5 c_7 c_8 c_10 seg_2 c_0 c_2 c_3 c_5 c_7 c_8 c_10 seg_": 909,
      "4 c_0 c_2 c_4 c_7 c_11 seg_": 910,
      "0 c_2 c_4 c_7 c_9 seg_2 c_0 c_2 c_4 c_7 c_9 seg_3 c_0 c_2 c_4 c_7 c_9 seg_": 911,
      "2 c_3 c_5 c_6 c_10 seg_": 912,
      " c_1 c_2 c_4 c_6 c_7 c_10 c_11 seg_": 913,
      "6 c_0 c_2 c_4 c_7 c_9 seg_7 c_0 c_2 c_4 c_7 c_9 seg_0 c_0 c_2 c_4 c_7 c_9 seg_1 c_": 914,
      "7 seg_0 c_": 915,
      "0 c_2 c_5 c_9 c_10 seg_1 c_": 916,
      "4 c_11 seg_": 917,
      "7 c_8 c_11 seg_0 c_": 918,
      "0 c_2 c_4 c_9 c_11 seg_1 c_": 919,
      "0 c_2 c_4 c_7 c_11 seg_2 c_0 c_2 c_4 c_7 c_11 seg_": 920,
      " c_1 c_2 c_3 c_5 c_": 921,
      "6 c_0 c_2 c_4 c_7 c_11 seg_7 c_0 c_2 c_4 c_7 c_11 seg_": 922,
      "0 c_3 c_4 c_6 c_": 923,
      "3 c_0 c_2 c_4 c_7 c_11 seg_4 c_0 c_2 c_4 c_7 c_11 seg_": 924,
      " c_1 c_2 c_4 c_6 c_10 c_11 seg_": 925,
      "7 c_0 c_2 c_4 c_5 c_7 c_11 seg_": 926,
      "0 c_0 c_2 c_4 c_5 c_7 c_11 seg_1 c_": 927,
      "0 c_2 c_4 c_7 c_9 seg_2 c_0 c_2 c_4 c_7 c_9 seg_3 c_0 c_2 c_4 c_7 c_9 seg_4 c_0 c_2 c_4 c_7 c_9 seg_5 c_0 c_2 c_4 c_7 c_9 seg_": 928,
      "6 c_0 c_2 c_4 c_5 c_7 c_11 seg_": 929,
      "0 c_4 c_5 c_7 c_9 c_10 seg_1 c_": 930,
      "4 c_0 c_2 c_4 c_5 c_7 c_11 seg_": 931,
      "5 c_0 c_2 c_4 c_5 c_7 c_11 seg_": 932,
      "2 c_0 c_2 c_4 c_5 c_7 c_11 seg_": 933,
      "8 seg_0 c_": 934,
      "3 c_0 c_2 c_4 c_5 c_7 c_11 seg_": 935,
      "0 c_0 c_2 c_4 c_7 c_11 seg_1 c_0 c_2 c_4 c_7 c_11 seg_2 c_0 c_2 c_4 c_7 c_11 seg_": 936,
      "0 c_1 c_6 c_": 937,
      "0 c_4 c_5 c_7 c_9 c_10 seg_3 c_": 938,
      "0 c_4 c_5 c_7 c_9 c_10 seg_4 c_": 939,
      "0 c_4 c_5 c_7 c_9 c_10 seg_5 c_": 940,
      "8 c_10 seg_1": 941,
      "3 c_0 c_2 c_4 c_7 c_11 seg_4 c_0 c_2 c_4 c_7 c_11 seg_5 c_0 c_2 c_4 c_7 c_11 seg_": 942,
      "0 c_4 c_5 c_7 c_9 c_10 seg_2 c_": 943,
      "0 c_4 c_5 c_7 c_9 c_10 seg_7 c_": 944,
      "0 c_4 c_5 c_7 c_9 c_10 seg_6 c_": 945,
      "7 c_0 c_2 c_4 c_5 c_7 c_11 seg_0 c_0 c_2 c_4 c_5 c_7 c_11 seg_1 c_": 946,
      "0 c_2 c_4 c_5 c_7 c_11 seg_2 c_0 c_2 c_4 c_5 c_7 c_11 seg_": 947,
      "4 c_0 c_2 c_4 c_5 c_7 c_11 seg_5 c_0 c_2 c_4 c_5 c_7 c_11 seg_": 948,
      "0 c_4 c_5 c_7 c_9 c_10 seg_0 c_": 949,
      "0 c_1 c_4 c_6 c_8 c_11 seg_": 950,
      "0 c_0 c_2 c_4 c_5 c_7 c_9 c_11 seg_1 c_0 c_2 c_4 c_5 c_7 c_9 c_11 seg_2 c_0 c_2 c_4 c_5 c_7 c_9 c_11 seg_3 c_0 c_2 c_4 c_5 c_7 c_9 c_11 seg_4 c_0 c_2 c_4 c_5 c_7 c_9 c_11 seg_5 c_0 c_2 c_4 c_5 c_7 c_9 c_11 seg_6 c_0 c_2 c_4 c_5 c_7 c_9 c_11 seg_7 c_0 c_2 c_4 c_5 c_7 c_9 c_11 seg_0 c_0 c_2 c_4 c_5 c_7 c_9 c_11 seg_1 c_0 c_2 c_4 c_5 c_7 c_9 c_11 seg_2 c_0 c_2 c_4 c_5 c_7 c_9 c_11 seg_3 c_0 c_2 c_4 c_5 c_7 c_9 c_11 seg_4 c_0 c_2 c_4 c_5 c_7 c_9 c_11 seg_5 c_0 c_2 c_4 c_5 c_7 c_9 c_11 seg_6 c_0 c_2 c_4 c_5 c_7 c_9 c_11 seg_7 c_0 c_2 c_4 c_5 c_7 c_9 c_11 seg_0 c_0 c_2 c_4 c_5 c_7 c_9 c_11 seg_1 c_0 c_2 c_4 c_5 c_7 c_9 c_11 seg_2 c_0 c_2 c_4 c_5 c_7 c_9 c_11 seg_3 c_0 c_2 c_4 c_5 c_7 c_9 c_11 seg_4 c_0 c_2 c_4 c_5 c_7 c_9 c_11 seg_5 c_0 c_2 c_4 c_5 c_7 c_9 c_11 seg_6 c_0 c_2 c_4 c_5 c_7 c_9 c_11 seg_7 c_0 c_2 c_4 c_5 c_7 c_9 c_11 seg_0 c_0 c_2 c_4 c_5 c_7 c_9 c_11 seg_1 c_0 c_2 c_4 c_5 c_7 c_9 c_11 seg_2 c_0 c_2 c_4 c_5 c_7 c_9 c_11 seg_3 c_0 c_2 c_4 c_5 c_7 c_9 c_11 seg_4 c_0 c_2 c_4 c_5 c_7 c_9 c_11 seg_5 c_0 c_2 c_4 c_5 c_7 c_9 c_11 seg_6 c_0 c_2 c_4 c_5 c_7 c_9 c_11 seg_7 c_0 c_2 c_4 c_5 c_7 c_9 c_11 seg_": 951,
      "2 c_4 c_7 c_9 c_11 seg_3 c_": 952,
      "0 c_4 c_5 c_7 c_9 c_10 seg_3 c_0 c_4 c_5 c_7 c_9 c_10 seg_4 c_": 953,
      "8 c_11 seg_3 c_": 954,
      "2 c_3 c_5 c_7 c_10 seg_3 c_": 955,
      "6 c_0 c_2 c_4 c_5 c_7 c_11 seg_7 c_0 c_2 c_4 c_5 c_7 c_11 seg_0 c_0 c_2 c_4 c_5 c_7 c_11 seg_1 c_": 956,
      "0 c_4 c_5 c_7 c_9 c_10 seg_5 c_0 c_4 c_5 c_7 c_9 c_10 seg_6 c_": 957,
      "0 c_4 c_5 c_7 c_9 c_10 seg_1 c_0 c_4 c_5 c_7 c_9 c_10 seg_2 c_": 958,
      "3 c_5 c_6 c_8 c_11 seg_": 959,
      "0 c_2 c_4 c_5 c_7 c_11 seg_2 c_0 c_2 c_4 c_5 c_7 c_11 seg_3 c_0 c_2 c_4 c_5 c_7 c_11 seg_": 960,
      "0 c_2 c_4 c_7 c_9 seg_2 c_0 c_2 c_4 c_7 c_9 seg_3 c_0 c_2 c_4 c_7 c_9 seg_4 c_0 c_2 c_4 c_7 c_9 seg_5 c_0 c_2 c_4 c_7 c_9 seg_6 c_0 c_2 c_4 c_7 c_9 seg_7 c_0 c_2 c_4 c_7 c_9 seg_0 c_0 c_2 c_4 c_7 c_9 seg_1 c_": 961,
      "0 c_4 c_5 c_7 c_9 seg_1 c_": 962,
      "2 c_3 c_4 c_5 c_": 963,
      "0 c_4 c_5 c_7 c_9 c_10 seg_7 c_0 c_4 c_5 c_7 c_9 c_10 seg_0 c_": 964,
      "0 c_1 c_2 c_3 c_5 c_": 965,
      "0 c_1 c_4 c_6 c_8 c_9 seg_": 966,
      "5 c_6 c_10 seg_": 967,
      " c_1 c_2 c_4 c_8 c_9 seg_": 968,
      "6 c_0 c_2 c_4 c_7 c_11 seg_7 c_0 c_2 c_4 c_7 c_11 seg_0 c_0 c_2 c_4 c_7 c_11 seg_1 c_0 c_2 c_4 c_7 c_11 seg_2 c_0 c_2 c_4 c_7 c_11 seg_": 969,
      "0 c_4 c_5 c_7 c_9 seg_3 c_": 970,
      "0 c_4 c_5 c_7 c_9 seg_7 c_": 971,
      "0 c_4 c_5 c_7 c_9 seg_2 c_": 972,
      "0 c_2 c_5 c_7 c_8 c_10 seg_": 973,
      "0 c_4 c_5 c_7 c_9 seg_5 c_": 974,
      "0 c_4 c_5 c_7 c_9 seg_0 c_": 975,
      "0 c_2 c_3 c_5 c_7 c_9 c_10 seg_3 c_0 c_2 c_3 c_5 c_7 c_9 c_10 seg_4 c_0 c_2 c_3 c_5 c_7 c_9 c_10 seg_5 c_0 c_2 c_3 c_5 c_7 c_9 c_10 seg_6 c_0 c_2 c_3 c_5 c_7 c_9 c_10 seg_7 c_0 c_2 c_3 c_5 c_7 c_9 c_10 seg_0 c_0 c_2 c_3 c_5 c_7 c_9 c_10 seg_1 c_0 c_2 c_3 c_5 c_7 c_9 c_10 seg_2 c_0 c_2 c_3 c_5 c_7 c_9 c_10 seg_3 c_0 c_2 c_3 c_5 c_7 c_9 c_10 seg_4 c_0 c_2 c_3 c_5 c_7 c_9 c_10 seg_5 c_0 c_2 c_3 c_5 c_7 c_9 c_10 seg_6 c_0 c_2 c_3 c_5 c_7 c_9 c_10 seg_7 c_0 c_2 c_3 c_5 c_7 c_9 c_10 seg_0 c_0 c_2 c_3 c_5 c_7 c_9 c_10 seg_1 c_0 c_2 c_3 c_5 c_7 c_9 c_10 seg_2 c_0 c_2 c_3 c_5 c_7 c_9 c_10 seg_3 c_0 c_2 c_3 c_5 c_7 c_9 c_10 seg_4 c_0 c_2 c_3 c_5 c_7 c_9 c_10 seg_5 c_0 c_2 c_3 c_5 c_7 c_9 c_10 seg_6 c_0 c_2 c_3 c_5 c_7 c_9 c_10 seg_7 c_0 c_2 c_3 c_5 c_7 c_9 c_10 seg_0 c_0 c_2 c_3 c_5 c_7 c_9 c_10 seg_1 c_0 c_2 c_3 c_5 c_7 c_9 c_10 seg_2 c_0 c_2 c_3 c_5 c_7 c_9 c_10 seg_3 c_0 c_2 c_3 c_5 c_7 c_9 c_10 seg_4 c_0 c_2 c_3 c_5 c_7 c_9 c_10 seg_5 c_0 c_2 c_3 c_5 c_7 c_9 c_10 seg_6 c_0 c_2 c_3 c_5 c_7 c_9 c_10 seg_7 c_0 c_2 c_3 c_5 c_7 c_9 c_10 seg_0 c_0 c_2 c_3 c_5 c_7 c_9 c_10 seg_1 c_0 c_2 c_3 c_5 c_7 c_9 c_10 seg_2 c_": 976,
      "0 c_4 c_5 c_7 c_9 seg_4 c_": 977,
      "0 c_1 c_3 c_4 c_6 c_8 c_11 seg_1 c_1 c_3 c_4 c_6 c_8 c_11 seg_2 c_1 c_3 c_4 c_6 c_8 c_11 seg_3 c_1 c_3 c_4 c_6 c_8 c_11 seg_4 c_1 c_3 c_4 c_6 c_8 c_11 seg_5 c_1 c_3 c_4 c_6 c_8 c_11 seg_6 c_1 c_3 c_4 c_6 c_8 c_11 seg_7 c_1 c_3 c_4 c_6 c_8 c_11 seg_0 c_1 c_3 c_4 c_6 c_8 c_11 seg_1 c_1 c_3 c_4 c_6 c_8 c_11 seg_2 c_1 c_3 c_4 c_6 c_8 c_11 seg_3 c_1 c_3 c_4 c_6 c_8 c_11 seg_4 c_1 c_3 c_4 c_6 c_8 c_11 seg_5 c_1 c_3 c_4 c_6 c_8 c_11 seg_6 c_1 c_3 c_4 c_6 c_8 c_11 seg_7 c_1 c_3 c_4 c_6 c_8 c_11 seg_0 c_1 c_3 c_4 c_6 c_8 c_11 seg_1 c_1 c_3 c_4 c_6 c_8 c_11 seg_2 c_1 c_3 c_4 c_6 c_8 c_11 seg_3 c_1 c_3 c_4 c_6 c_8 c_11 seg_4 c_1 c_3 c_4 c_6 c_8 c_11 seg_5 c_1 c_3 c_4 c_6 c_8 c_11 seg_6 c_1 c_3 c_4 c_6 c_8 c_11 seg_7 c_1 c_3 c_4 c_6 c_8 c_11 seg_0 c_1 c_3 c_4 c_6 c_8 c_11 seg_1 c_1 c_3 c_4 c_6 c_8 c_11 seg_2 c_1 c_3 c_4 c_6 c_8 c_11 seg_3 c_1 c_3 c_4 c_6 c_8 c_11 seg_4 c_1 c_3 c_4 c_6 c_8 c_11 seg_5 c_1 c_3 c_4 c_6 c_8 c_11 seg_6 c_1 c_3 c_4 c_6 c_8 c_11 seg_7 c_1 c_3 c_4 c_6 c_8 c_11 seg_": 978,
      "0 c_4 c_5 c_7 c_9 seg_6 c_": 979,
      "0 c_2 c_4 c_6 c_7 c_11 seg_1 c_": 980,
      "0 c_2 c_4 c_6 c_9 c_11 seg_1 c_": 981,
      "0 c_4 c_5 c_7 c_9 c_10 seg_1 c_0 c_4 c_5 c_7 c_9 c_10 seg_2 c_0 c_4 c_5 c_7 c_9 c_10 seg_3 c_0 c_4 c_5 c_7 c_9 c_10 seg_4 c_": 982,
      "8 c_11 seg_1 c_": 983,
      "0 c_2 c_4 c_5 c_7 c_11 seg_2 c_0 c_2 c_4 c_5 c_7 c_11 seg_3 c_0 c_2 c_4 c_5 c_7 c_11 seg_4 c_0 c_2 c_4 c_5 c_7 c_11 seg_5 c_0 c_2 c_4 c_5 c_7 c_11 seg_": 984,
      "0 c_1 c_4 c_6 c_": 985,
      "0 c_4 c_5 c_7 c_9 seg_0 c_0 c_4 c_5 c_7 c_9 seg_1 c_": 986,
      "0 c_4 c_5 c_7 c_9 c_10 seg_5 c_0 c_4 c_5 c_7 c_9 c_10 seg_6 c_0 c_4 c_5 c_7 c_9 c_10 seg_7 c_0 c_4 c_5 c_7 c_9 c_10 seg_0 c_": 987,
      " c_1 c_3 c_4 c_6 c_8 c_10 seg_": 988,
      "0 c_4 c_5 c_7 c_9 seg_2 c_0 c_4 c_5 c_7 c_9 seg_3 c_": 989,
      "0 c_2 c_5 c_7 c_10 seg_1 c_": 990,
      "0 c_2 c_3 c_5 c_9 c_10 seg_1 c_": 991,
      "4 c_9 seg_": 992,
      "0 c_4 c_5 c_7 c_9 seg_6 c_0 c_4 c_5 c_7 c_9 seg_7 c_": 993,
      "0 c_2 c_5 c_7 c_9 seg_1 c_": 994,
      "6 c_1 c_2 c_4 c_6 c_7 c_9 seg_": 995,
      "0 c_4 c_5 c_7 c_9 seg_4 c_0 c_4 c_5 c_7 c_9 seg_5 c_": 996,
      "7 c_1 c_2 c_4 c_6 c_7 c_9 seg_": 997,
      "2 c_3 c_4 c_6 c_8 c_9 c_11 seg_": 998,
      "2 c_1 c_2 c_4 c_6 c_7 c_9 seg_": 999
    },
    "merges": [
      [
        " ",
        "c"
      ],
      [
        " c",
        "_"
      ],
      [
        " c_",
        "1"
      ],
      [
        " ",
        "s"
      ],
      [
        "e",
        "g"
      ],
      [
        " s",
        "eg"
      ],
      [
        " seg",
        "_"
      ],
      [
        "2",
        " c_"
      ],
      [
        "4",
        " c_"
      ],
      [
        "5",
        " c_"
      ],
      [
        "3",
        " c_"
      ],
      [
        "6",
        " c_"
      ],
      [
        "7",
        " c_"
      ],
      [
        "0",
        " c_"
      ],
      [
        "1",
        " seg_"
      ],
      [
        " c_1",
        "1 seg_"
      ],
      [
        " c_1",
        "0"
      ],
      [
        " c_1",
        " c_"
      ],
      [
        " c_10",
        " seg_"
      ],
      [
        "0 c_",
        "2 c_"
      ],
      [
        "7 c_",
        "9"
      ],
      [
        "4 c_",
        "6 c_"
      ],
      [
        "3 c_",
        "5 c_"
      ],
      [
        "0",
        " c_1 c_"
      ],
      [
        "8",
        " c_10 seg_"
      ],
      [
        "4 c_",
        "5 c_"
      ],
      [
        "9",
        " c_11 seg_"
      ],
      [
        "8",
        " c_"
      ],
      [
        "7 c_9",
        " c_11 seg_"
      ],
      [
        " c_10",
        " c_11 seg_"
      ],
      [
        " c_1 c_",
        "2 c_"
      ],
      [
        "1",
        " c_"
      ],
      [
        " c_1 c_",
        "3 c_"
      ],
      [
        "7 c_",
        "8 c_10 seg_"
      ],
      [
        "7 c_9",
        " c_10 seg_"
      ],
      [
        "8 c_",
        "9 c_11 seg_"
      ],
      [
        "0 c_2 c_",
        "4 c_5 c_"
      ],
      [
        "8",
        " c_10 c_11 seg_"
      ],
      [
        "7 c_9",
        " seg_"
      ],
      [
        "0 c_2 c_",
        "3 c_5 c_"
      ],
      [
        "3 c_5 c_",
        "6 c_"
      ],
      [
        "9",
        " seg_"
      ],
      [
        "4 c_6 c_",
        "7 c_9 c_11 seg_"
      ],
      [
        "7",
        " c_10 seg_"
      ],
      [
        "8",
        " seg_"
      ],
      [
        "8",
        " c_11 seg_"
      ],
      [
        "0 c_2 c_",
        "4 c_"
      ],
      [
        "4 c_6 c_",
        "8 c_9 c_11 seg_"
      ],
      [
        "0 c_2 c_",
        "5 c_"
      ],
      [
        "0 c_1 c_",
        "2 c_"
      ],
      [
        "7",
        " c_11 seg_"
      ],
      [
        "3 c_5 c_",
        "7 c_8 c_10 seg_"
      ],
      [
        "9",
        " c_10 seg_"
      ],
      [
        "0 c_1 c_",
        "3 c_"
      ],
      [
        "4 c_6 c_",
        "9 c_11 seg_"
      ],
      [
        "3 c_5 c_6 c_",
        "8 c_10 seg_"
      ],
      [
        "8 c_",
        "9 seg_"
      ],
      [
        "0 c_2 c_",
        "3 c_"
      ],
      [
        " c_1 c_3 c_",
        "4 c_6 c_"
      ],
      [
        "0 c_1 c_",
        "3 c_5 c_"
      ],
      [
        "6 c_",
        "8 c_10 c_11 seg_"
      ],
      [
        "0 c_2 c_4 c_",
        "7 c_9 c_11 seg_"
      ],
      [
        "0 c_",
        "3 c_"
      ],
      [
        "0 c_",
        "4 c_5 c_"
      ],
      [
        "0 c_",
        "3 c_5 c_7 c_8 c_10 seg_"
      ],
      [
        "0 c_2 c_4 c_5 c_",
        "7 c_9 seg_"
      ],
      [
        "4 c_5 c_",
        "6 c_"
      ],
      [
        "5 c_",
        "6 c_"
      ],
      [
        "9",
        " c_10 c_11 seg_"
      ],
      [
        "2 c_",
        "4 c_6 c_7 c_9 c_11 seg_"
      ],
      [
        "7 c_",
        "8 seg_"
      ],
      [
        "0 c_2 c_5 c_",
        "7 c_9 c_10 seg_"
      ],
      [
        "0 c_2 c_3 c_5 c_",
        "7 c_10 seg_"
      ],
      [
        "7",
        " seg_"
      ],
      [
        "2 c_",
        "3 c_"
      ],
      [
        " c_1 c_2 c_",
        "4 c_6 c_9 c_11 seg_"
      ],
      [
        "0 c_",
        "3 c_5 c_"
      ],
      [
        "0 c_1 c_3 c_5 c_",
        "8 c_10 seg_"
      ],
      [
        "0 c_1 c_2 c_",
        "3 c_"
      ],
      [
        "7 c_",
        "8 c_"
      ],
      [
        " c_1 c_2 c_",
        "4 c_6 c_"
      ],
      [
        "4",
        " c_1 c_"
      ],
      [
        "3",
        " c_1 c_"
      ],
      [
        "5",
        " c_1 c_"
      ],
      [
        "6",
        " c_1 c_"
      ],
      [
        "2",
        " c_1 c_"
      ],
      [
        "7",
        " c_1 c_"
      ],
      [
        "1",
        " c_1 c_"
      ],
      [
        "0 c_",
        "5 c_"
      ],
      [
        "0 c_2 c_3 c_5 c_",
        "7 c_8 c_10 seg_"
      ],
      [
        "4 c_",
        "8 c_9 c_11 seg_"
      ],
      [
        "6",
        " c_10 c_11 seg_"
      ],
      [
        "0 c_2 c_",
        "4 c_6 c_7 c_9 c_11 seg_"
      ],
      [
        "0 c_2 c_4 c_5 c_",
        "7 c_9 c_11 seg_"
      ],
      [
        "6",
        " c_10 seg_"
      ],
      [
        "0 c_2 c_3 c_5 c_",
        "7 c_9 c_10 seg_"
      ],
      [
        "7 c_8 c_",
        "9 c_10 c_11 seg_"
      ],
      [
        " c_1 c_3 c_",
        "6 c_8 c_10 c_11 seg_"
      ],
      [
        "3 c_5 c_6 c_",
        "8 c_10 c_11 seg_"
      ],
      [
        "0 c_1 c_2 c_3 c_",
        "4 c_5 c_6 c_"
      ],
      [
        "0 c_1 c_2 c_3 c_4 c_5 c_6 c_",
        "7 c_8 c_9 c_10 c_11 seg_"
      ],
      [
        "6",
        " c_11 seg_"
      ],
      [
        "0 c_2 c_4 c_5 c_",
        "7 c_9 c_10 seg_"
      ],
      [
        "5",
        " c_10 seg_"
      ],
      [
        "0 c_1 c_",
        "3 c_5 c_6 c_8 c_10 seg_"
      ],
      [
        " c_1 c_3 c_4 c_6 c_",
        "8 c_11 seg_"
      ],
      [
        " c_1 c_2 c_",
        "6 c_"
      ],
      [
        "4 c_6 c_",
        "8 c_11 seg_"
      ],
      [
        "2 c_",
        "4 c_"
      ],
      [
        "0 c_",
        "4 c_"
      ],
      [
        " c_1 c_3 c_",
        "4 c_"
      ],
      [
        " c_1 c_2 c_",
        "4 c_"
      ],
      [
        "0 c_1 c_",
        "5 c_"
      ],
      [
        " c_1 c_3 c_",
        "6 c_"
      ],
      [
        " c_1 c_2 c_",
        "4 c_6 c_7 c_9 c_11 seg_"
      ],
      [
        "7",
        " c_10 c_11 seg_"
      ],
      [
        "0 c_1 c_",
        "3 c_5 c_7 c_8 c_10 seg_"
      ],
      [
        "0 c_2 c_",
        "6 c_"
      ],
      [
        " c_1 c_3 c_",
        "4 c_6 c_8 c_9 c_11 seg_"
      ],
      [
        "2 c_",
        "3 c_5 c_"
      ],
      [
        "7 c_",
        "8 c_11 seg_"
      ],
      [
        "4 c_6 c_",
        "7 c_11 seg_"
      ],
      [
        "2 c_",
        "4 c_5 c_"
      ],
      [
        "2 c_",
        "6 c_"
      ],
      [
        " c_1 c_2 c_",
        "4 c_6 c_8 c_9 c_11 seg_"
      ],
      [
        " c_1 c_3 c_4 c_6 c_",
        "8 c_10 c_11 seg_"
      ],
      [
        "2 c_",
        "5 c_"
      ],
      [
        "7 c_",
        "8 c_10 c_11 seg_"
      ],
      [
        "8 c_",
        "9 c_10 seg_"
      ],
      [
        "3 c_5 c_6 c_",
        "8 seg_"
      ],
      [
        "5 c_6 c_",
        "8 c_10 seg_"
      ],
      [
        "0 c_2 c_4 c_",
        "7 c_9 seg_"
      ],
      [
        "0 c_2 c_4 c_",
        "7 c_11 seg_"
      ],
      [
        " c_1 c_2 c_",
        "3 c_"
      ],
      [
        "2 c_",
        "4 c_6 c_"
      ],
      [
        "0 c_2 c_4 c_5 c_",
        "7 c_11 seg_"
      ],
      [
        "0 c_4 c_5 c_",
        "7 c_9 c_10 seg_"
      ],
      [
        "0 c_1 c_",
        "4 c_5 c_"
      ],
      [
        "7 c_",
        "8 c_9 seg_"
      ],
      [
        "0 c_4 c_5 c_",
        "7 c_9 seg_"
      ],
      [
        "4 c_6 c_",
        "8 c_9 seg_"
      ],
      [
        "0 c_3 c_",
        "7 c_8 c_10 seg_"
      ],
      [
        "0 c_2 c_5 c_",
        "9 c_10 seg_"
      ],
      [
        "7 c_9",
        " c_10 c_11 seg_"
      ],
      [
        "3 c_5 c_",
        "8 c_10 seg_"
      ],
      [
        "0 c_1 c_3 c_",
        "6 c_"
      ],
      [
        "0 c_3 c_5 c_",
        "8 c_10 seg_"
      ],
      [
        "0 c_2 c_6 c_",
        "7 c_9 c_11 seg_"
      ],
      [
        "0 c_2 c_5 c_",
        "7 c_9 seg_"
      ],
      [
        "2 c_",
        "3 c_5 c_7 c_8 c_10 seg_"
      ],
      [
        "0 c_1 c_3 c_",
        "7 c_8 c_10 seg_"
      ],
      [
        "0 c_2 c_5 c_",
        "7 c_10 seg_"
      ],
      [
        "0 c_2 c_4 c_6 c_7 c_9 c_11 seg_",
        "1 c_"
      ],
      [
        " c_1 c_2 c_4 c_6 c_",
        "7 c_9 seg_"
      ],
      [
        "4 c_",
        "3 c_"
      ],
      [
        "3 c_",
        "3 c_"
      ],
      [
        "6 c_",
        "3 c_"
      ],
      [
        "7 c_",
        "3 c_"
      ],
      [
        "5 c_",
        "3 c_"
      ],
      [
        "1 c_",
        "3 c_"
      ],
      [
        "7 c_",
        "8 c_9 c_11 seg_"
      ],
      [
        "0 c_3 c_",
        "4 c_"
      ],
      [
        " c_1 c_2 c_",
        "4 c_5 c_"
      ],
      [
        "0 c_2 c_4 c_5 c_",
        "9 c_11 seg_"
      ],
      [
        "6 c_",
        "8 c_9 c_11 seg_"
      ],
      [
        "2 c_",
        "4 c_6 c_9 c_11 seg_"
      ],
      [
        "0 c_1 c_3 c_",
        "4 c_"
      ],
      [
        "2 c_4 c_",
        "7 c_9 c_11 seg_"
      ],
      [
        "0 c_",
        "4 c_6 c_7 c_9 c_11 seg_"
      ],
      [
        "2 c_3 c_5 c_",
        "7 c_10 seg_"
      ],
      [
        "0 c_2 c_3 c_5 c_",
        "9 c_10 seg_"
      ],
      [
        "5 c_",
        "6 c_8 c_10 c_11 seg_"
      ],
      [
        "2 c_6 c_",
        "7 c_9 c_11 seg_"
      ],
      [
        "0 c_2 c_3 c_",
        "6 c_"
      ],
      [
        "0 c_2 c_4 c_",
        "9 c_11 seg_"
      ],
      [
        "0 c_2 c_4 c_7 c_9 c_11 seg_",
        "1 c_"
      ],
      [
        "7 c_9 c_10 seg_",
        "7 c_"
      ],
      [
        "7 c_9 c_10 seg_",
        "6 c_"
      ],
      [
        "7 c_9 c_10 seg_",
        "5 c_"
      ],
      [
        "7 c_9 c_10 seg_",
        "4 c_"
      ],
      [
        "7 c_9 c_10 seg_",
        "3 c_"
      ],
      [
        "0 c_2 c_4 c_5 c_",
        "9 seg_"
      ],
      [
        "0 c_1 c_",
        "4 c_"
      ],
      [
        "7 c_9 c_10 seg_",
        "2 c_"
      ],
      [
        "0 c_2 c_3 c_5 c_",
        "7 c_8 seg_"
      ],
      [
        " c_1 c_2 c_4 c_6 c_",
        "9 seg_"
      ],
      [
        "0 c_1 c_",
        "3 c_5 c_6 c_8 seg_"
      ],
      [
        "0 c_2 c_",
        "4 c_6 c_"
      ],
      [
        "0 c_1 c_3 c_",
        "4 c_6 c_"
      ],
      [
        "0 c_3 c_5 c_",
        "7 c_10 seg_"
      ],
      [
        "3 c_5 c_",
        "6 c_10 seg_"
      ],
      [
        "0 c_5 c_",
        "7 c_8 c_10 seg_"
      ],
      [
        " c_1 c_2 c_6 c_",
        "8 c_9 c_11 seg_"
      ],
      [
        "0 c_4 c_",
        "7 c_9 c_11 seg_"
      ],
      [
        " c_1 c_2 c_",
        "5 c_"
      ],
      [
        "0 c_2 c_3 c_",
        "7 c_10 seg_"
      ],
      [
        "0 c_1 c_3 c_5 c_",
        "8 seg_"
      ],
      [
        "2 c_4 c_6 c_7 c_9 c_11 seg_",
        "3 c_"
      ],
      [
        "0 c_",
        "0 c_2 c_4 c_7 c_9 c_11 seg_1 c_"
      ],
      [
        "2 c_",
        "0 c_2 c_4 c_7 c_9 c_11 seg_"
      ],
      [
        "4 c_",
        "0 c_2 c_4 c_7 c_9 c_11 seg_"
      ],
      [
        "7 c_",
        "0 c_2 c_4 c_7 c_9 c_11 seg_"
      ],
      [
        "6 c_",
        "0 c_2 c_4 c_7 c_9 c_11 seg_"
      ],
      [
        "3 c_",
        "0 c_2 c_4 c_7 c_9 c_11 seg_"
      ],
      [
        "5 c_",
        "0 c_2 c_4 c_7 c_9 c_11 seg_"
      ],
      [
        "2 c_3 c_",
        "6 c_"
      ],
      [
        "0 c_1 c_",
        "5 c_6 c_"
      ],
      [
        "0 c_0 c_2 c_4 c_7 c_9 c_11 seg_1 c_",
        "0 c_2 c_4 c_7 c_9 c_11 seg_"
      ],
      [
        "4 c_0 c_2 c_4 c_7 c_9 c_11 seg_",
        "5 c_0 c_2 c_4 c_7 c_9 c_11 seg_"
      ],
      [
        "6 c_0 c_2 c_4 c_7 c_9 c_11 seg_",
        "7 c_0 c_2 c_4 c_7 c_9 c_11 seg_"
      ],
      [
        "2 c_0 c_2 c_4 c_7 c_9 c_11 seg_",
        "3 c_0 c_2 c_4 c_7 c_9 c_11 seg_"
      ],
      [
        "0 c_1 c_2 c_",
        "4 c_"
      ],
      [
        "2 c_0 c_2 c_4 c_7 c_9 c_11 seg_3 c_0 c_2 c_4 c_7 c_9 c_11 seg_",
        "4 c_0 c_2 c_4 c_7 c_9 c_11 seg_5 c_0 c_2 c_4 c_7 c_9 c_11 seg_"
      ],
      [
        "6 c_0 c_2 c_4 c_7 c_9 c_11 seg_7 c_0 c_2 c_4 c_7 c_9 c_11 seg_",
        "0 c_0 c_2 c_4 c_7 c_9 c_11 seg_1 c_0 c_2 c_4 c_7 c_9 c_11 seg_"
      ],
      [
        "0 c_1 c_2 c_",
        "5 c_"
      ],
      [
        "0 c_3 c_5 c_7 c_8 c_10 seg_",
        "1 c_"
      ],
      [
        "0 c_1 c_2 c_",
        "4 c_5 c_"
      ],
      [
        "0 c_2 c_4 c_5 c_",
        "7 seg_"
      ],
      [
        "0 c_1 c_3 c_5 c_",
        "6 c_10 seg_"
      ],
      [
        "0 c_2 c_4 c_5 c_7 c_9 seg_",
        "1 c_"
      ],
      [
        " c_1 c_3 c_6 c_",
        "8 c_11 seg_"
      ],
      [
        "6 c_0 c_2 c_4 c_7 c_9 c_11 seg_7 c_0 c_2 c_4 c_7 c_9 c_11 seg_0 c_0 c_2 c_4 c_7 c_9 c_11 seg_1 c_0 c_2 c_4 c_7 c_9 c_11 seg_",
        "2 c_0 c_2 c_4 c_7 c_9 c_11 seg_3 c_0 c_2 c_4 c_7 c_9 c_11 seg_4 c_0 c_2 c_4 c_7 c_9 c_11 seg_5 c_0 c_2 c_4 c_7 c_9 c_11 seg_"
      ],
      [
        "0 c_2 c_",
        "7 c_9 c_11 seg_"
      ],
      [
        "0 c_2 c_3 c_5 c_7 c_10 seg_",
        "1 c_"
      ],
      [
        "4 c_",
        "2 c_4 c_6 c_7 c_9 c_11 seg_"
      ],
      [
        "6 c_",
        "2 c_4 c_6 c_7 c_9 c_11 seg_"
      ],
      [
        "5 c_",
        "2 c_4 c_6 c_7 c_9 c_11 seg_"
      ],
      [
        "7 c_",
        "2 c_4 c_6 c_7 c_9 c_11 seg_"
      ],
      [
        "2 c_",
        "4 c_6 c_7 c_11 seg_"
      ],
      [
        "2 c_",
        "2 c_4 c_6 c_7 c_9 c_11 seg_3 c_"
      ],
      [
        "0 c_2 c_3 c_",
        "4 c_"
      ],
      [
        " c_1 c_2 c_",
        "4 c_8 c_9 c_11 seg_"
      ],
      [
        "0 c_2 c_4 c_6 c_7 c_9 c_11 seg_1 c_",
        "2 c_4 c_6 c_7 c_9 c_11 seg_"
      ],
      [
        "5 c_2 c_4 c_6 c_7 c_9 c_11 seg_",
        "6 c_2 c_4 c_6 c_7 c_9 c_11 seg_"
      ],
      [
        "2 c_4 c_6 c_7 c_9 c_11 seg_",
        "4 c_2 c_4 c_6 c_7 c_9 c_11 seg_"
      ],
      [
        "0 c_2 c_5 c_7 c_9 c_10 seg_",
        "1 c_"
      ],
      [
        "0 c_1 c_5 c_",
        "7 c_8 c_10 seg_"
      ],
      [
        "5 c_2 c_4 c_6 c_7 c_9 c_11 seg_6 c_2 c_4 c_6 c_7 c_9 c_11 seg_",
        "7 c_2 c_4 c_6 c_7 c_9 c_11 seg_"
      ],
      [
        "2 c_2 c_4 c_6 c_7 c_9 c_11 seg_3 c_",
        "2 c_4 c_6 c_7 c_9 c_11 seg_4 c_2 c_4 c_6 c_7 c_9 c_11 seg_"
      ],
      [
        " c_1 c_3 c_6 c_",
        "8 c_10 seg_"
      ],
      [
        "0 c_2 c_3 c_5 c_",
        "7 seg_"
      ],
      [
        "6 c_0 c_2 c_4 c_7 c_9 c_11 seg_7 c_0 c_2 c_4 c_7 c_9 c_11 seg_0 c_0 c_2 c_4 c_7 c_9 c_11 seg_1 c_0 c_2 c_4 c_7 c_9 c_11 seg_2 c_0 c_2 c_4 c_7 c_9 c_11 seg_3 c_0 c_2 c_4 c_7 c_9 c_11 seg_4 c_0 c_2 c_4 c_7 c_9 c_11 seg_5 c_0 c_2 c_4 c_7 c_9 c_11 seg_",
        "6 c_0 c_2 c_4 c_7 c_9 c_11 seg_7 c_0 c_2 c_4 c_7 c_9 c_11 seg_0 c_0 c_2 c_4 c_7 c_9 c_11 seg_1 c_0 c_2 c_4 c_7 c_9 c_11 seg_2 c_0 c_2 c_4 c_7 c_9 c_11 seg_3 c_0 c_2 c_4 c_7 c_9 c_11 seg_4 c_0 c_2 c_4 c_7 c_9 c_11 seg_5 c_0 c_2 c_4 c_7 c_9 c_11 seg_"
      ],
      [
        "7 c_9 c_10 seg_",
        "1 c_"
      ],
      [
        "4 c_",
        "0 c_3 c_5 c_7 c_8 c_10 seg_"
      ],
      [
        "5 c_",
        "0 c_3 c_5 c_7 c_8 c_10 seg_"
      ],
      [
        "0 c_2 c_4 c_6 c_7 c_9 c_11 seg_1 c_2 c_4 c_6 c_7 c_9 c_11 seg_",
        "2 c_2 c_4 c_6 c_7 c_9 c_11 seg_3 c_2 c_4 c_6 c_7 c_9 c_11 seg_4 c_2 c_4 c_6 c_7 c_9 c_11 seg_"
      ],
      [
        "3 c_",
        "0 c_3 c_5 c_7 c_8 c_10 seg_"
      ],
      [
        "5 c_0 c_3 c_5 c_7 c_8 c_10 seg_",
        "6 c_"
      ],
      [
        "2 c_",
        "0 c_3 c_5 c_7 c_8 c_10 seg_"
      ],
      [
        "7 c_",
        "0 c_3 c_5 c_7 c_8 c_10 seg_"
      ],
      [
        "0 c_",
        "0 c_3 c_5 c_7 c_8 c_10 seg_1 c_"
      ],
      [
        " c_1 c_3 c_",
        "6 c_10 c_11 seg_"
      ],
      [
        "4 c_6 c_8 c_9 c_11 seg_",
        "1"
      ],
      [
        "7 c_9 seg_",
        "6 c_"
      ],
      [
        "7 c_9 seg_",
        "7 c_"
      ],
      [
        "7 c_9 seg_",
        "3 c_"
      ],
      [
        "7 c_9 seg_",
        "5 c_"
      ],
      [
        "7 c_9 seg_",
        "4 c_"
      ],
      [
        "5 c_0 c_3 c_5 c_7 c_8 c_10 seg_6 c_",
        "0 c_3 c_5 c_7 c_8 c_10 seg_"
      ],
      [
        "3 c_0 c_3 c_5 c_7 c_8 c_10 seg_",
        "4 c_0 c_3 c_5 c_7 c_8 c_10 seg_"
      ],
      [
        "0 c_3 c_5 c_7 c_8 c_10 seg_",
        "2 c_0 c_3 c_5 c_7 c_8 c_10 seg_"
      ],
      [
        "7 c_0 c_3 c_5 c_7 c_8 c_10 seg_",
        "0 c_0 c_3 c_5 c_7 c_8 c_10 seg_1 c_"
      ],
      [
        "7 c_9 seg_",
        "2 c_"
      ],
      [
        "0 c_3 c_",
        "4 c_5 c_"
      ],
      [
        " c_1 c_3 c_4 c_6 c_",
        "8 seg_"
      ],
      [
        "0 c_2 c_4 c_6 c_7 c_9 c_11 seg_1 c_2 c_4 c_6 c_7 c_9 c_11 seg_2 c_2 c_4 c_6 c_7 c_9 c_11 seg_3 c_2 c_4 c_6 c_7 c_9 c_11 seg_4 c_2 c_4 c_6 c_7 c_9 c_11 seg_",
        "5 c_2 c_4 c_6 c_7 c_9 c_11 seg_6 c_2 c_4 c_6 c_7 c_9 c_11 seg_7 c_2 c_4 c_6 c_7 c_9 c_11 seg_"
      ],
      [
        "2 c_",
        "0 c_2 c_4 c_5 c_7 c_9 seg_"
      ],
      [
        "6 c_",
        "0 c_2 c_4 c_5 c_7 c_9 seg_"
      ],
      [
        "5 c_",
        "0 c_2 c_4 c_5 c_7 c_9 seg_"
      ],
      [
        "4 c_",
        "0 c_2 c_4 c_5 c_7 c_9 seg_"
      ],
      [
        "0 c_",
        "0 c_2 c_4 c_5 c_7 c_9 seg_1 c_"
      ],
      [
        "2 c_0 c_2 c_4 c_5 c_7 c_9 seg_",
        "3 c_"
      ],
      [
        "6 c_0 c_2 c_4 c_5 c_7 c_9 seg_",
        "7 c_"
      ],
      [
        "4 c_",
        "6 c_11 seg_"
      ],
      [
        "0 c_3 c_5 c_7 c_8 c_10 seg_2 c_0 c_3 c_5 c_7 c_8 c_10 seg_",
        "3 c_0 c_3 c_5 c_7 c_8 c_10 seg_4 c_0 c_3 c_5 c_7 c_8 c_10 seg_"
      ],
      [
        "5 c_0 c_3 c_5 c_7 c_8 c_10 seg_6 c_0 c_3 c_5 c_7 c_8 c_10 seg_",
        "7 c_0 c_3 c_5 c_7 c_8 c_10 seg_0 c_0 c_3 c_5 c_7 c_8 c_10 seg_1 c_"
      ],
      [
        "6 c_",
        "8 c_11 seg_"
      ],
      [
        "0 c_3 c_5 c_",
        "7 c_8 seg_"
      ],
      [
        "4 c_6 c_9 c_11 seg_",
        "1"
      ],
      [
        "0 c_2 c_4 c_5 c_7 c_9 seg_",
        "4 c_0 c_2 c_4 c_5 c_7 c_9 seg_"
      ],
      [
        "0 c_0 c_2 c_4 c_5 c_7 c_9 seg_1 c_",
        "0 c_2 c_4 c_5 c_7 c_9 seg_"
      ],
      [
        "6 c_0 c_2 c_4 c_5 c_7 c_9 seg_7 c_",
        "0 c_2 c_4 c_5 c_7 c_9 seg_"
      ],
      [
        "0 c_2 c_4 c_5 c_7 c_9 seg_4 c_0 c_2 c_4 c_5 c_7 c_9 seg_",
        "5 c_0 c_2 c_4 c_5 c_7 c_9 seg_"
      ],
      [
        " c_1 c_2 c_",
        "5 c_6 c_"
      ],
      [
        " c_1 c_2 c_4 c_6 c_",
        "7 c_11 seg_"
      ],
      [
        "0 c_0 c_2 c_4 c_5 c_7 c_9 seg_1 c_0 c_2 c_4 c_5 c_7 c_9 seg_",
        "2 c_0 c_2 c_4 c_5 c_7 c_9 seg_3 c_"
      ],
      [
        " c_1 c_3 c_4 c_6 c_",
        "8 c_9 seg_"
      ],
      [
        "5 c_0 c_3 c_5 c_7 c_8 c_10 seg_6 c_0 c_3 c_5 c_7 c_8 c_10 seg_7 c_0 c_3 c_5 c_7 c_8 c_10 seg_0 c_0 c_3 c_5 c_7 c_8 c_10 seg_1 c_",
        "0 c_3 c_5 c_7 c_8 c_10 seg_2 c_0 c_3 c_5 c_7 c_8 c_10 seg_3 c_0 c_3 c_5 c_7 c_8 c_10 seg_4 c_0 c_3 c_5 c_7 c_8 c_10 seg_"
      ],
      [
        "0 c_2 c_4 c_6 c_7 c_9 c_11 seg_1 c_2 c_4 c_6 c_7 c_9 c_11 seg_2 c_2 c_4 c_6 c_7 c_9 c_11 seg_3 c_2 c_4 c_6 c_7 c_9 c_11 seg_4 c_2 c_4 c_6 c_7 c_9 c_11 seg_5 c_2 c_4 c_6 c_7 c_9 c_11 seg_6 c_2 c_4 c_6 c_7 c_9 c_11 seg_7 c_2 c_4 c_6 c_7 c_9 c_11 seg_",
        "0 c_2 c_4 c_6 c_7 c_9 c_11 seg_1 c_2 c_4 c_6 c_7 c_9 c_11 seg_2 c_2 c_4 c_6 c_7 c_9 c_11 seg_3 c_2 c_4 c_6 c_7 c_9 c_11 seg_4 c_2 c_4 c_6 c_7 c_9 c_11 seg_5 c_2 c_4 c_6 c_7 c_9 c_11 seg_6 c_2 c_4 c_6 c_7 c_9 c_11 seg_7 c_2 c_4 c_6 c_7 c_9 c_11 seg_"
      ],
      [
        "0 c_1 c_5 c_",
        "8 c_10 seg_"
      ],
      [
        "0 c_2 c_4 c_5 c_7 c_9 seg_4 c_0 c_2 c_4 c_5 c_7 c_9 seg_5 c_0 c_2 c_4 c_5 c_7 c_9 seg_",
        "6 c_0 c_2 c_4 c_5 c_7 c_9 seg_7 c_0 c_2 c_4 c_5 c_7 c_9 seg_"
      ],
      [
        "0 c_2 c_3 c_",
        "5 c_10 seg_"
      ],
      [
        "6",
        " c_1 c_2 c_4 c_6 c_9 c_11 seg_"
      ],
      [
        "7",
        " c_1 c_2 c_4 c_6 c_9 c_11 seg_"
      ],
      [
        "5",
        " c_1 c_2 c_4 c_6 c_9 c_11 seg_"
      ],
      [
        "3",
        " c_1 c_2 c_4 c_6 c_9 c_11 seg_"
      ],
      [
        "4",
        " c_1 c_2 c_4 c_6 c_9 c_11 seg_"
      ],
      [
        "2",
        " c_1 c_2 c_4 c_6 c_9 c_11 seg_"
      ],
      [
        "0 c_1 c_2 c_",
        "4 c_6 c_9 c_11 seg_1"
      ],
      [
        "0 c_2 c_4 c_5 c_",
        "9 c_10 seg_"
      ],
      [
        "0 c_2 c_3 c_5 c_7 c_8 c_10 seg_",
        "1 c_"
      ],
      [
        "6 c_1 c_2 c_4 c_6 c_9 c_11 seg_",
        "7 c_1 c_2 c_4 c_6 c_9 c_11 seg_"
      ],
      [
        "0 c_1 c_2 c_",
        "4 c_6 c_"
      ],
      [
        "3 c_1 c_2 c_4 c_6 c_9 c_11 seg_",
        "4 c_1 c_2 c_4 c_6 c_9 c_11 seg_"
      ],
      [
        "0 c_1 c_2 c_4 c_6 c_9 c_11 seg_1",
        " c_1 c_2 c_4 c_6 c_9 c_11 seg_"
      ],
      [
        "0 c_2 c_5 c_7 c_9 c_10 seg_",
        "3 c_"
      ],
      [
        "0 c_2 c_5 c_7 c_9 c_10 seg_",
        "6 c_"
      ],
      [
        "0 c_2 c_5 c_7 c_9 c_10 seg_",
        "7 c_"
      ],
      [
        "0 c_",
        "0 c_2 c_5 c_7 c_9 c_10 seg_1 c_"
      ],
      [
        "0 c_2 c_5 c_7 c_9 c_10 seg_",
        "2 c_"
      ],
      [
        "0 c_2 c_5 c_7 c_9 c_10 seg_",
        "4 c_"
      ],
      [
        "0 c_2 c_5 c_7 c_9 c_10 seg_",
        "5 c_"
      ],
      [
        "0 c_1 c_3 c_",
        "8 c_10 seg_"
      ],
      [
        "0 c_2 c_4 c_5 c_7 c_9 seg_4 c_0 c_2 c_4 c_5 c_7 c_9 seg_5 c_0 c_2 c_4 c_5 c_7 c_9 seg_6 c_0 c_2 c_4 c_5 c_7 c_9 seg_7 c_0 c_2 c_4 c_5 c_7 c_9 seg_",
        "0 c_0 c_2 c_4 c_5 c_7 c_9 seg_1 c_0 c_2 c_4 c_5 c_7 c_9 seg_2 c_0 c_2 c_4 c_5 c_7 c_9 seg_3 c_"
      ],
      [
        "3 c_1 c_2 c_4 c_6 c_9 c_11 seg_4 c_1 c_2 c_4 c_6 c_9 c_11 seg_",
        "5 c_1 c_2 c_4 c_6 c_9 c_11 seg_"
      ],
      [
        "0 c_1 c_2 c_4 c_6 c_9 c_11 seg_1 c_1 c_2 c_4 c_6 c_9 c_11 seg_",
        "2 c_1 c_2 c_4 c_6 c_9 c_11 seg_"
      ],
      [
        " c_1 c_2 c_6 c_",
        "9 c_11 seg_"
      ],
      [
        "0 c_",
        "0 c_1 c_2 c_3 c_4 c_5 c_6 c_7 c_8 c_9 c_10 c_11 seg_"
      ],
      [
        "0 c_2 c_5 c_7 c_9 c_10 seg_7 c_",
        "0 c_2 c_5 c_7 c_9 c_10 seg_"
      ],
      [
        "6 c_",
        "0 c_2 c_3 c_5 c_7 c_10 seg_"
      ],
      [
        "0 c_0 c_2 c_5 c_7 c_9 c_10 seg_1 c_",
        "0 c_2 c_5 c_7 c_9 c_10 seg_2 c_"
      ],
      [
        "4 c_",
        "0 c_2 c_3 c_5 c_7 c_10 seg_"
      ],
      [
        "0 c_2 c_5 c_7 c_9 c_10 seg_3 c_",
        "0 c_2 c_5 c_7 c_9 c_10 seg_4 c_"
      ],
      [
        "7 c_",
        "0 c_2 c_3 c_5 c_7 c_10 seg_"
      ],
      [
        "5 c_",
        "0 c_2 c_3 c_5 c_7 c_10 seg_"
      ],
      [
        "0 c_2 c_5 c_7 c_9 c_10 seg_5 c_",
        "0 c_2 c_5 c_7 c_9 c_10 seg_6 c_"
      ],
      [
        "3 c_",
        "0 c_2 c_3 c_5 c_7 c_10 seg_"
      ],
      [
        "0 c_",
        "0 c_2 c_3 c_5 c_7 c_10 seg_1 c_"
      ],
      [
        "2 c_",
        "0 c_2 c_3 c_5 c_7 c_10 seg_"
      ],
      [
        "7 c_8 c_",
        "9 c_10 seg_"
      ],
      [
        "5 c_0 c_3 c_5 c_7 c_8 c_10 seg_6 c_0 c_3 c_5 c_7 c_8 c_10 seg_7 c_0 c_3 c_5 c_7 c_8 c_10 seg_0 c_0 c_3 c_5 c_7 c_8 c_10 seg_1 c_0 c_3 c_5 c_7 c_8 c_10 seg_2 c_0 c_3 c_5 c_7 c_8 c_10 seg_3 c_0 c_3 c_5 c_7 c_8 c_10 seg_4 c_0 c_3 c_5 c_7 c_8 c_10 seg_",
        "5 c_0 c_3 c_5 c_7 c_8 c_10 seg_6 c_0 c_3 c_5 c_7 c_8 c_10 seg_7 c_0 c_3 c_5 c_7 c_8 c_10 seg_0 c_0 c_3 c_5 c_7 c_8 c_10 seg_1 c_0 c_3 c_5 c_7 c_8 c_10 seg_2 c_0 c_3 c_5 c_7 c_8 c_10 seg_3 c_0 c_3 c_5 c_7 c_8 c_10 seg_4 c_0 c_3 c_5 c_7 c_8 c_10 seg_"
      ],
      [
        "3 c_1 c_2 c_4 c_6 c_9 c_11 seg_4 c_1 c_2 c_4 c_6 c_9 c_11 seg_5 c_1 c_2 c_4 c_6 c_9 c_11 seg_",
        "6 c_1 c_2 c_4 c_6 c_9 c_11 seg_7 c_1 c_2 c_4 c_6 c_9 c_11 seg_"
      ],
      [
        "0 c_2 c_",
        "4 c_6 c_7 c_11 seg_"
      ],
      [
        "4 c_0 c_2 c_3 c_5 c_7 c_10 seg_",
        "5 c_0 c_2 c_3 c_5 c_7 c_10 seg_"
      ],
      [
        "6 c_0 c_2 c_3 c_5 c_7 c_10 seg_",
        "7 c_0 c_2 c_3 c_5 c_7 c_10 seg_"
      ],
      [
        "0 c_0 c_2 c_3 c_5 c_7 c_10 seg_1 c_",
        "0 c_2 c_3 c_5 c_7 c_10 seg_"
      ],
      [
        "2 c_0 c_2 c_3 c_5 c_7 c_10 seg_",
        "3 c_0 c_2 c_3 c_5 c_7 c_10 seg_"
      ],
      [
        "0 c_2 c_5 c_7 c_9 c_10 seg_5 c_0 c_2 c_5 c_7 c_9 c_10 seg_6 c_",
        "0 c_2 c_5 c_7 c_9 c_10 seg_7 c_0 c_2 c_5 c_7 c_9 c_10 seg_"
      ],
      [
        "0 c_0 c_2 c_5 c_7 c_9 c_10 seg_1 c_0 c_2 c_5 c_7 c_9 c_10 seg_2 c_",
        "0 c_2 c_5 c_7 c_9 c_10 seg_3 c_0 c_2 c_5 c_7 c_9 c_10 seg_4 c_"
      ],
      [
        "0 c_1 c_",
        "5 c_6 c_8 c_10 seg_"
      ],
      [
        " c_1 c_3 c_4 c_",
        "6 c_10 c_11 seg_"
      ],
      [
        "0 c_1 c_2 c_4 c_6 c_9 c_11 seg_1 c_1 c_2 c_4 c_6 c_9 c_11 seg_2 c_1 c_2 c_4 c_6 c_9 c_11 seg_",
        "3 c_1 c_2 c_4 c_6 c_9 c_11 seg_4 c_1 c_2 c_4 c_6 c_9 c_11 seg_5 c_1 c_2 c_4 c_6 c_9 c_11 seg_6 c_1 c_2 c_4 c_6 c_9 c_11 seg_7 c_1 c_2 c_4 c_6 c_9 c_11 seg_"
      ],
      [
        "4 c_0 c_2 c_3 c_5 c_7 c_10 seg_5 c_0 c_2 c_3 c_5 c_7 c_10 seg_",
        "6 c_0 c_2 c_3 c_5 c_7 c_10 seg_7 c_0 c_2 c_3 c_5 c_7 c_10 seg_"
      ],
      [
        "0 c_0 c_2 c_3 c_5 c_7 c_10 seg_1 c_0 c_2 c_3 c_5 c_7 c_10 seg_",
        "2 c_0 c_2 c_3 c_5 c_7 c_10 seg_3 c_0 c_2 c_3 c_5 c_7 c_10 seg_"
      ],
      [
        "0 c_2 c_4 c_5 c_7 c_9 seg_4 c_0 c_2 c_4 c_5 c_7 c_9 seg_5 c_0 c_2 c_4 c_5 c_7 c_9 seg_6 c_0 c_2 c_4 c_5 c_7 c_9 seg_7 c_0 c_2 c_4 c_5 c_7 c_9 seg_0 c_0 c_2 c_4 c_5 c_7 c_9 seg_1 c_0 c_2 c_4 c_5 c_7 c_9 seg_2 c_0 c_2 c_4 c_5 c_7 c_9 seg_3 c_",
        "0 c_2 c_4 c_5 c_7 c_9 seg_4 c_0 c_2 c_4 c_5 c_7 c_9 seg_5 c_0 c_2 c_4 c_5 c_7 c_9 seg_6 c_0 c_2 c_4 c_5 c_7 c_9 seg_7 c_0 c_2 c_4 c_5 c_7 c_9 seg_0 c_0 c_2 c_4 c_5 c_7 c_9 seg_1 c_0 c_2 c_4 c_5 c_7 c_9 seg_2 c_0 c_2 c_4 c_5 c_7 c_9 seg_3 c_"
      ],
      [
        "4 c_6 c_",
        "8 c_10 c_11 seg_"
      ],
      [
        " c_1 c_2 c_4 c_",
        "6 c_11 seg_"
      ],
      [
        "0 c_0 c_2 c_5 c_7 c_9 c_10 seg_1 c_0 c_2 c_5 c_7 c_9 c_10 seg_2 c_0 c_2 c_5 c_7 c_9 c_10 seg_3 c_0 c_2 c_5 c_7 c_9 c_10 seg_4 c_",
        "0 c_2 c_5 c_7 c_9 c_10 seg_5 c_0 c_2 c_5 c_7 c_9 c_10 seg_6 c_0 c_2 c_5 c_7 c_9 c_10 seg_7 c_0 c_2 c_5 c_7 c_9 c_10 seg_"
      ],
      [
        "0 c_2 c_5 c_",
        "7 c_11 seg_"
      ],
      [
        " c_1 c_2 c_4 c_",
        "9 c_11 seg_"
      ],
      [
        "8 c_",
        "9 c_10 c_11 seg_"
      ],
      [
        "0 c_2 c_3 c_",
        "7 c_8 c_10 seg_"
      ],
      [
        "0 c_1 c_",
        "4 c_6 c_8 c_9 c_11 seg_"
      ],
      [
        "7 c_9 c_10 seg_",
        "0 c_"
      ],
      [
        "0 c_0 c_2 c_3 c_5 c_7 c_10 seg_1 c_0 c_2 c_3 c_5 c_7 c_10 seg_2 c_0 c_2 c_3 c_5 c_7 c_10 seg_3 c_0 c_2 c_3 c_5 c_7 c_10 seg_",
        "4 c_0 c_2 c_3 c_5 c_7 c_10 seg_5 c_0 c_2 c_3 c_5 c_7 c_10 seg_6 c_0 c_2 c_3 c_5 c_7 c_10 seg_7 c_0 c_2 c_3 c_5 c_7 c_10 seg_"
      ],
      [
        "0 c_4 c_5 c_",
        "7 c_10 seg_"
      ],
      [
        "7 c_9 seg_",
        "1 c_"
      ],
      [
        "0 c_1 c_3 c_",
        "4 c_5 c_"
      ],
      [
        "0 c_1 c_2 c_4 c_6 c_9 c_11 seg_1 c_1 c_2 c_4 c_6 c_9 c_11 seg_2 c_1 c_2 c_4 c_6 c_9 c_11 seg_3 c_1 c_2 c_4 c_6 c_9 c_11 seg_4 c_1 c_2 c_4 c_6 c_9 c_11 seg_5 c_1 c_2 c_4 c_6 c_9 c_11 seg_6 c_1 c_2 c_4 c_6 c_9 c_11 seg_7 c_1 c_2 c_4 c_6 c_9 c_11 seg_",
        "0 c_1 c_2 c_4 c_6 c_9 c_11 seg_1 c_1 c_2 c_4 c_6 c_9 c_11 seg_2 c_1 c_2 c_4 c_6 c_9 c_11 seg_3 c_1 c_2 c_4 c_6 c_9 c_11 seg_4 c_1 c_2 c_4 c_6 c_9 c_11 seg_5 c_1 c_2 c_4 c_6 c_9 c_11 seg_6 c_1 c_2 c_4 c_6 c_9 c_11 seg_7 c_1 c_2 c_4 c_6 c_9 c_11 seg_"
      ],
      [
        "0 c_1 c_3 c_",
        "5 c_10 seg_"
      ],
      [
        "6 c_1 c_",
        "4 c_6 c_8 c_9 c_11 seg_"
      ],
      [
        "5 c_1 c_",
        "4 c_6 c_8 c_9 c_11 seg_"
      ],
      [
        "3 c_1 c_",
        "4 c_6 c_8 c_9 c_11 seg_"
      ],
      [
        "7 c_1 c_",
        "4 c_6 c_8 c_9 c_11 seg_"
      ],
      [
        "4 c_1 c_",
        "4 c_6 c_8 c_9 c_11 seg_"
      ],
      [
        "1 c_1 c_",
        "4 c_6 c_8 c_9 c_11 seg_"
      ],
      [
        "2 c_1 c_",
        "4 c_6 c_8 c_9 c_11 seg_"
      ],
      [
        "0 c_5 c_",
        "7 c_10 seg_"
      ],
      [
        "0 c_1 c_2 c_",
        "6 c_"
      ],
      [
        "4 c_1 c_",
        "3 c_5 c_6 c_8 c_10 seg_"
      ],
      [
        "7 c_1 c_",
        "3 c_5 c_6 c_8 c_10 seg_"
      ],
      [
        "5 c_1 c_",
        "3 c_5 c_6 c_8 c_10 seg_"
      ],
      [
        "6 c_1 c_",
        "3 c_5 c_6 c_8 c_10 seg_"
      ],
      [
        "2 c_1 c_",
        "3 c_5 c_6 c_8 c_10 seg_"
      ],
      [
        "1 c_1 c_",
        "3 c_5 c_6 c_8 c_10 seg_"
      ],
      [
        "3 c_1 c_",
        "3 c_5 c_6 c_8 c_10 seg_"
      ],
      [
        "0 c_0 c_2 c_5 c_7 c_9 c_10 seg_1 c_0 c_2 c_5 c_7 c_9 c_10 seg_2 c_0 c_2 c_5 c_7 c_9 c_10 seg_3 c_0 c_2 c_5 c_7 c_9 c_10 seg_4 c_0 c_2 c_5 c_7 c_9 c_10 seg_5 c_0 c_2 c_5 c_7 c_9 c_10 seg_6 c_0 c_2 c_5 c_7 c_9 c_10 seg_7 c_0 c_2 c_5 c_7 c_9 c_10 seg_",
        "0 c_0 c_2 c_5 c_7 c_9 c_10 seg_1 c_0 c_2 c_5 c_7 c_9 c_10 seg_2 c_0 c_2 c_5 c_7 c_9 c_10 seg_3 c_0 c_2 c_5 c_7 c_9 c_10 seg_4 c_0 c_2 c_5 c_7 c_9 c_10 seg_5 c_0 c_2 c_5 c_7 c_9 c_10 seg_6 c_0 c_2 c_5 c_7 c_9 c_10 seg_7 c_0 c_2 c_5 c_7 c_9 c_10 seg_"
      ],
      [
        "5 c_1 c_4 c_6 c_8 c_9 c_11 seg_",
        "6 c_1 c_4 c_6 c_8 c_9 c_11 seg_"
      ],
      [
        "0 c_1 c_4 c_6 c_8 c_9 c_11 seg_",
        "1 c_1 c_4 c_6 c_8 c_9 c_11 seg_"
      ],
      [
        "3 c_1 c_4 c_6 c_8 c_9 c_11 seg_",
        "4 c_1 c_4 c_6 c_8 c_9 c_11 seg_"
      ],
      [
        "0 c_1 c_3 c_5 c_6 c_8 c_10 seg_",
        "1 c_1 c_3 c_5 c_6 c_8 c_10 seg_"
      ],
      [
        "4 c_1 c_3 c_5 c_6 c_8 c_10 seg_",
        "5 c_1 c_3 c_5 c_6 c_8 c_10 seg_"
      ],
      [
        "6 c_1 c_3 c_5 c_6 c_8 c_10 seg_",
        "7 c_1 c_3 c_5 c_6 c_8 c_10 seg_"
      ],
      [
        "2 c_",
        "0 c_1 c_2 c_3 c_4 c_5 c_6 c_7 c_8 c_9 c_10 c_11 seg_"
      ],
      [
        "2 c_1 c_3 c_5 c_6 c_8 c_10 seg_",
        "3 c_1 c_3 c_5 c_6 c_8 c_10 seg_"
      ],
      [
        "6 c_8 c_10 c_11 seg_",
        "1"
      ],
      [
        "0 c_1 c_4 c_6 c_8 c_9 c_11 seg_1 c_1 c_4 c_6 c_8 c_9 c_11 seg_",
        "2 c_1 c_4 c_6 c_8 c_9 c_11 seg_"
      ],
      [
        "5 c_1 c_4 c_6 c_8 c_9 c_11 seg_6 c_1 c_4 c_6 c_8 c_9 c_11 seg_",
        "7 c_1 c_4 c_6 c_8 c_9 c_11 seg_"
      ],
      [
        "2 c_",
        "0 c_1 c_3 c_5 c_8 c_10 seg_"
      ],
      [
        "4 c_",
        "0 c_1 c_3 c_5 c_8 c_10 seg_"
      ],
      [
        "5 c_",
        "0 c_1 c_3 c_5 c_8 c_10 seg_"
      ],
      [
        "0 c_",
        "0 c_1 c_3 c_5 c_8 c_10 seg_"
      ],
      [
        "1 c_",
        "0 c_1 c_3 c_5 c_8 c_10 seg_"
      ],
      [
        "3 c_",
        "0 c_1 c_3 c_5 c_8 c_10 seg_"
      ],
      [
        "6 c_",
        "0 c_1 c_3 c_5 c_8 c_10 seg_"
      ],
      [
        "7 c_",
        "0 c_1 c_3 c_5 c_8 c_10 seg_"
      ],
      [
        "0 c_0 c_2 c_3 c_5 c_7 c_10 seg_1 c_0 c_2 c_3 c_5 c_7 c_10 seg_2 c_0 c_2 c_3 c_5 c_7 c_10 seg_3 c_0 c_2 c_3 c_5 c_7 c_10 seg_4 c_0 c_2 c_3 c_5 c_7 c_10 seg_5 c_0 c_2 c_3 c_5 c_7 c_10 seg_6 c_0 c_2 c_3 c_5 c_7 c_10 seg_7 c_0 c_2 c_3 c_5 c_7 c_10 seg_",
        "0 c_0 c_2 c_3 c_5 c_7 c_10 seg_1 c_0 c_2 c_3 c_5 c_7 c_10 seg_2 c_0 c_2 c_3 c_5 c_7 c_10 seg_3 c_0 c_2 c_3 c_5 c_7 c_10 seg_4 c_0 c_2 c_3 c_5 c_7 c_10 seg_5 c_0 c_2 c_3 c_5 c_7 c_10 seg_6 c_0 c_2 c_3 c_5 c_7 c_10 seg_7 c_0 c_2 c_3 c_5 c_7 c_10 seg_"
      ],
      [
        "0 c_2 c_3 c_",
        "4 c_5 c_"
      ],
      [
        " c_1 c_3 c_4 c_",
        "8 c_10 c_11 seg_"
      ],
      [
        "0 c_1 c_3 c_5 c_6 c_8 c_10 seg_1 c_1 c_3 c_5 c_6 c_8 c_10 seg_",
        "2 c_1 c_3 c_5 c_6 c_8 c_10 seg_3 c_1 c_3 c_5 c_6 c_8 c_10 seg_"
      ],
      [
        "4 c_1 c_3 c_5 c_6 c_8 c_10 seg_5 c_1 c_3 c_5 c_6 c_8 c_10 seg_",
        "6 c_1 c_3 c_5 c_6 c_8 c_10 seg_7 c_1 c_3 c_5 c_6 c_8 c_10 seg_"
      ],
      [
        "6 c_",
        "8 c_10 seg_"
      ],
      [
        "3 c_0 c_1 c_3 c_5 c_8 c_10 seg_",
        "4 c_0 c_1 c_3 c_5 c_8 c_10 seg_"
      ],
      [
        "0 c_1 c_",
        "3 c_5 c_6 c_"
      ],
      [
        "1 c_0 c_1 c_3 c_5 c_8 c_10 seg_",
        "2 c_0 c_1 c_3 c_5 c_8 c_10 seg_"
      ],
      [
        "6 c_0 c_1 c_3 c_5 c_8 c_10 seg_",
        "7 c_0 c_1 c_3 c_5 c_8 c_10 seg_"
      ],
      [
        "2 c_0 c_1 c_2 c_3 c_4 c_5 c_6 c_7 c_8 c_9 c_10 c_11 seg_",
        "3 c_"
      ],
      [
        "0 c_1 c_4 c_6 c_8 c_9 c_11 seg_1 c_1 c_4 c_6 c_8 c_9 c_11 seg_2 c_1 c_4 c_6 c_8 c_9 c_11 seg_",
        "3 c_1 c_4 c_6 c_8 c_9 c_11 seg_4 c_1 c_4 c_6 c_8 c_9 c_11 seg_"
      ],
      [
        "2 c_3 c_",
        "4 c_"
      ],
      [
        "6 c_0 c_1 c_3 c_5 c_8 c_10 seg_7 c_0 c_1 c_3 c_5 c_8 c_10 seg_",
        "0 c_0 c_1 c_3 c_5 c_8 c_10 seg_"
      ],
      [
        "3 c_0 c_1 c_3 c_5 c_8 c_10 seg_4 c_0 c_1 c_3 c_5 c_8 c_10 seg_",
        "5 c_0 c_1 c_3 c_5 c_8 c_10 seg_"
      ],
      [
        "5",
        " c_1 c_3 c_6 c_8 c_10 c_11 seg_"
      ],
      [
        "7",
        " c_1 c_3 c_6 c_8 c_10 c_11 seg_"
      ],
      [
        "4",
        " c_1 c_3 c_6 c_8 c_10 c_11 seg_"
      ],
      [
        "2",
        " c_1 c_3 c_6 c_8 c_10 c_11 seg_"
      ],
      [
        "6",
        " c_1 c_3 c_6 c_8 c_10 c_11 seg_"
      ],
      [
        "3",
        " c_1 c_3 c_6 c_8 c_10 c_11 seg_"
      ],
      [
        "0 c_1 c_3 c_",
        "6 c_8 c_10 c_11 seg_1"
      ],
      [
        "0 c_2 c_5 c_",
        "7 seg_"
      ],
      [
        "0 c_2 c_4 c_5 c_7 c_9 c_10 seg_",
        "1 c_"
      ],
      [
        "4 c_1 c_3 c_6 c_8 c_10 c_11 seg_",
        "5 c_1 c_3 c_6 c_8 c_10 c_11 seg_"
      ],
      [
        "0 c_1 c_3 c_6 c_8 c_10 c_11 seg_1",
        " c_1 c_3 c_6 c_8 c_10 c_11 seg_"
      ],
      [
        "6 c_1 c_3 c_6 c_8 c_10 c_11 seg_",
        "7 c_1 c_3 c_6 c_8 c_10 c_11 seg_"
      ],
      [
        "2 c_1 c_3 c_6 c_8 c_10 c_11 seg_",
        "3 c_1 c_3 c_6 c_8 c_10 c_11 seg_"
      ],
      [
        "6 c_0 c_1 c_3 c_5 c_8 c_10 seg_7 c_0 c_1 c_3 c_5 c_8 c_10 seg_0 c_0 c_1 c_3 c_5 c_8 c_10 seg_",
        "1 c_0 c_1 c_3 c_5 c_8 c_10 seg_2 c_0 c_1 c_3 c_5 c_8 c_10 seg_"
      ],
      [
        "0 c_1 c_3 c_5 c_6 c_8 c_10 seg_1 c_1 c_3 c_5 c_6 c_8 c_10 seg_2 c_1 c_3 c_5 c_6 c_8 c_10 seg_3 c_1 c_3 c_5 c_6 c_8 c_10 seg_",
        "4 c_1 c_3 c_5 c_6 c_8 c_10 seg_5 c_1 c_3 c_5 c_6 c_8 c_10 seg_6 c_1 c_3 c_5 c_6 c_8 c_10 seg_7 c_1 c_3 c_5 c_6 c_8 c_10 seg_"
      ],
      [
        "5 c_1 c_4 c_6 c_8 c_9 c_11 seg_6 c_1 c_4 c_6 c_8 c_9 c_11 seg_7 c_1 c_4 c_6 c_8 c_9 c_11 seg_",
        "0 c_1 c_4 c_6 c_8 c_9 c_11 seg_1 c_1 c_4 c_6 c_8 c_9 c_11 seg_2 c_1 c_4 c_6 c_8 c_9 c_11 seg_3 c_1 c_4 c_6 c_8 c_9 c_11 seg_4 c_1 c_4 c_6 c_8 c_9 c_11 seg_"
      ],
      [
        "0 c_1 c_3 c_",
        "4 c_6 c_8 c_11 seg_"
      ],
      [
        "0 c_2 c_3 c_5 c_7 c_9 c_10 seg_",
        "1 c_"
      ],
      [
        "0 c_2 c_4 c_5 c_7 c_9 c_11 seg_",
        "1 c_"
      ],
      [
        "4 c_1 c_3 c_6 c_8 c_10 c_11 seg_5 c_1 c_3 c_6 c_8 c_10 c_11 seg_",
        "6 c_1 c_3 c_6 c_8 c_10 c_11 seg_7 c_1 c_3 c_6 c_8 c_10 c_11 seg_"
      ],
      [
        " c_1 c_3 c_6 c_",
        "8 seg_"
      ],
      [
        "0 c_1 c_3 c_6 c_8 c_10 c_11 seg_1 c_1 c_3 c_6 c_8 c_10 c_11 seg_",
        "2 c_1 c_3 c_6 c_8 c_10 c_11 seg_3 c_1 c_3 c_6 c_8 c_10 c_11 seg_"
      ],
      [
        "2 c_",
        "0 c_2 c_3 c_5 c_7 c_8 c_10 seg_"
      ],
      [
        "7 c_",
        "0 c_2 c_3 c_5 c_7 c_8 c_10 seg_"
      ],
      [
        "0 c_",
        "0 c_2 c_3 c_5 c_7 c_8 c_10 seg_1 c_"
      ],
      [
        "3 c_",
        "0 c_2 c_3 c_5 c_7 c_8 c_10 seg_"
      ],
      [
        "4 c_",
        "0 c_2 c_3 c_5 c_7 c_8 c_10 seg_"
      ],
      [
        "5 c_",
        "0 c_2 c_3 c_5 c_7 c_8 c_10 seg_"
      ],
      [
        "3 c_0 c_1 c_3 c_5 c_8 c_10 seg_4 c_0 c_1 c_3 c_5 c_8 c_10 seg_5 c_0 c_1 c_3 c_5 c_8 c_10 seg_",
        "6 c_0 c_1 c_3 c_5 c_8 c_10 seg_7 c_0 c_1 c_3 c_5 c_8 c_10 seg_0 c_0 c_1 c_3 c_5 c_8 c_10 seg_1 c_0 c_1 c_3 c_5 c_8 c_10 seg_2 c_0 c_1 c_3 c_5 c_8 c_10 seg_"
      ],
      [
        " c_1 c_3 c_4 c_",
        "8 c_11 seg_"
      ],
      [
        "6 c_",
        "0 c_2 c_3 c_5 c_7 c_8 c_10 seg_"
      ],
      [
        "2 c_4 c_",
        "9 c_11 seg_"
      ],
      [
        "0 c_2 c_3 c_5 c_7 c_8 c_10 seg_",
        "2 c_0 c_2 c_3 c_5 c_7 c_8 c_10 seg_"
      ],
      [
        "7 c_0 c_2 c_3 c_5 c_7 c_8 c_10 seg_",
        "0 c_0 c_2 c_3 c_5 c_7 c_8 c_10 seg_1 c_"
      ],
      [
        "3 c_0 c_2 c_3 c_5 c_7 c_8 c_10 seg_",
        "4 c_0 c_2 c_3 c_5 c_7 c_8 c_10 seg_"
      ],
      [
        "5 c_0 c_2 c_3 c_5 c_7 c_8 c_10 seg_",
        "6 c_0 c_2 c_3 c_5 c_7 c_8 c_10 seg_"
      ],
      [
        "8 c_10 c_11 seg_",
        "1"
      ],
      [
        "2 c_0 c_1 c_2 c_3 c_4 c_5 c_6 c_7 c_8 c_9 c_10 c_11 seg_3 c_",
        "0 c_1 c_2 c_3 c_4 c_5 c_6 c_7 c_8 c_9 c_10 c_11 seg_"
      ],
      [
        "0 c_2 c_5 c_",
        "6 c_"
      ],
      [
        "4 c_1 c_3 c_6 c_8 c_10 c_11 seg_5 c_1 c_3 c_6 c_8 c_10 c_11 seg_6 c_1 c_3 c_6 c_8 c_10 c_11 seg_7 c_1 c_3 c_6 c_8 c_10 c_11 seg_",
        "0 c_1 c_3 c_6 c_8 c_10 c_11 seg_1 c_1 c_3 c_6 c_8 c_10 c_11 seg_2 c_1 c_3 c_6 c_8 c_10 c_11 seg_3 c_1 c_3 c_6 c_8 c_10 c_11 seg_"
      ],
      [
        "2 c_",
        "0 c_2 c_4 c_5 c_7 c_9 c_11 seg_"
      ],
      [
        "7 c_0 c_2 c_3 c_5 c_7 c_8 c_10 seg_0 c_0 c_2 c_3 c_5 c_7 c_8 c_10 seg_1 c_",
        "0 c_2 c_3 c_5 c_7 c_8 c_10 seg_2 c_0 c_2 c_3 c_5 c_7 c_8 c_10 seg_"
      ],
      [
        "6 c_",
        "0 c_2 c_4 c_5 c_7 c_9 c_11 seg_"
      ],
      [
        "0 c_1 c_3 c_5 c_6 c_8 c_10 seg_1 c_1 c_3 c_5 c_6 c_8 c_10 seg_2 c_1 c_3 c_5 c_6 c_8 c_10 seg_3 c_1 c_3 c_5 c_6 c_8 c_10 seg_4 c_1 c_3 c_5 c_6 c_8 c_10 seg_5 c_1 c_3 c_5 c_6 c_8 c_10 seg_6 c_1 c_3 c_5 c_6 c_8 c_10 seg_7 c_1 c_3 c_5 c_6 c_8 c_10 seg_",
        "0 c_1 c_3 c_5 c_6 c_8 c_10 seg_1 c_1 c_3 c_5 c_6 c_8 c_10 seg_2 c_1 c_3 c_5 c_6 c_8 c_10 seg_3 c_1 c_3 c_5 c_6 c_8 c_10 seg_4 c_1 c_3 c_5 c_6 c_8 c_10 seg_5 c_1 c_3 c_5 c_6 c_8 c_10 seg_6 c_1 c_3 c_5 c_6 c_8 c_10 seg_7 c_1 c_3 c_5 c_6 c_8 c_10 seg_"
      ],
      [
        "4 c_",
        "0 c_2 c_4 c_5 c_7 c_9 c_11 seg_"
      ],
      [
        "0 c_",
        "0 c_2 c_4 c_5 c_7 c_9 c_11 seg_1 c_"
      ],
      [
        "5 c_",
        "0 c_2 c_4 c_5 c_7 c_9 c_11 seg_"
      ],
      [
        "3 c_0 c_2 c_3 c_5 c_7 c_8 c_10 seg_4 c_0 c_2 c_3 c_5 c_7 c_8 c_10 seg_",
        "5 c_0 c_2 c_3 c_5 c_7 c_8 c_10 seg_6 c_0 c_2 c_3 c_5 c_7 c_8 c_10 seg_"
      ],
      [
        "5 c_1 c_4 c_6 c_8 c_9 c_11 seg_6 c_1 c_4 c_6 c_8 c_9 c_11 seg_7 c_1 c_4 c_6 c_8 c_9 c_11 seg_0 c_1 c_4 c_6 c_8 c_9 c_11 seg_1 c_1 c_4 c_6 c_8 c_9 c_11 seg_2 c_1 c_4 c_6 c_8 c_9 c_11 seg_3 c_1 c_4 c_6 c_8 c_9 c_11 seg_4 c_1 c_4 c_6 c_8 c_9 c_11 seg_",
        "5 c_1 c_4 c_6 c_8 c_9 c_11 seg_6 c_1 c_4 c_6 c_8 c_9 c_11 seg_7 c_1 c_4 c_6 c_8 c_9 c_11 seg_0 c_1 c_4 c_6 c_8 c_9 c_11 seg_1 c_1 c_4 c_6 c_8 c_9 c_11 seg_2 c_1 c_4 c_6 c_8 c_9 c_11 seg_3 c_1 c_4 c_6 c_8 c_9 c_11 seg_4 c_1 c_4 c_6 c_8 c_9 c_11 seg_"
      ],
      [
        "7 c_",
        "0 c_2 c_4 c_5 c_7 c_9 c_11 seg_"
      ],
      [
        "3 c_",
        "0 c_2 c_4 c_5 c_7 c_9 c_11 seg_"
      ],
      [
        "2 c_0 c_1 c_2 c_3 c_4 c_5 c_6 c_7 c_8 c_9 c_10 c_11 seg_3 c_0 c_1 c_2 c_3 c_4 c_5 c_6 c_7 c_8 c_9 c_10 c_11 seg_",
        "4 c_"
      ],
      [
        "2 c_",
        "5 c_6 c_"
      ],
      [
        "6 c_0 c_2 c_4 c_5 c_7 c_9 c_11 seg_",
        "7 c_0 c_2 c_4 c_5 c_7 c_9 c_11 seg_"
      ],
      [
        "0 c_0 c_2 c_4 c_5 c_7 c_9 c_11 seg_1 c_",
        "0 c_2 c_4 c_5 c_7 c_9 c_11 seg_"
      ],
      [
        "4 c_0 c_2 c_4 c_5 c_7 c_9 c_11 seg_",
        "5 c_0 c_2 c_4 c_5 c_7 c_9 c_11 seg_"
      ],
      [
        "2 c_0 c_2 c_4 c_5 c_7 c_9 c_11 seg_",
        "3 c_0 c_2 c_4 c_5 c_7 c_9 c_11 seg_"
      ],
      [
        "5",
        " c_1 c_3 c_4 c_6 c_8 c_11 seg_"
      ],
      [
        "2",
        " c_1 c_3 c_4 c_6 c_8 c_11 seg_"
      ],
      [
        "4",
        " c_1 c_3 c_4 c_6 c_8 c_11 seg_"
      ],
      [
        "6",
        " c_1 c_3 c_4 c_6 c_8 c_11 seg_"
      ],
      [
        "3",
        " c_1 c_3 c_4 c_6 c_8 c_11 seg_"
      ],
      [
        "7",
        " c_1 c_3 c_4 c_6 c_8 c_11 seg_"
      ],
      [
        "3 c_0 c_1 c_3 c_5 c_8 c_10 seg_4 c_0 c_1 c_3 c_5 c_8 c_10 seg_5 c_0 c_1 c_3 c_5 c_8 c_10 seg_6 c_0 c_1 c_3 c_5 c_8 c_10 seg_7 c_0 c_1 c_3 c_5 c_8 c_10 seg_0 c_0 c_1 c_3 c_5 c_8 c_10 seg_1 c_0 c_1 c_3 c_5 c_8 c_10 seg_2 c_0 c_1 c_3 c_5 c_8 c_10 seg_",
        "3 c_0 c_1 c_3 c_5 c_8 c_10 seg_4 c_0 c_1 c_3 c_5 c_8 c_10 seg_5 c_0 c_1 c_3 c_5 c_8 c_10 seg_6 c_0 c_1 c_3 c_5 c_8 c_10 seg_7 c_0 c_1 c_3 c_5 c_8 c_10 seg_0 c_0 c_1 c_3 c_5 c_8 c_10 seg_1 c_0 c_1 c_3 c_5 c_8 c_10 seg_2 c_0 c_1 c_3 c_5 c_8 c_10 seg_"
      ],
      [
        "0 c_1 c_3 c_4 c_6 c_8 c_11 seg_",
        "1"
      ],
      [
        "7 c_11 seg_",
        "5 c_"
      ],
      [
        "4 c_",
        "9 c_11 seg_"
      ],
      [
        "7 c_11 seg_",
        "6 c_"
      ],
      [
        "7 c_11 seg_",
        "7 c_"
      ],
      [
        "7 c_11 seg_",
        "3 c_"
      ],
      [
        "7 c_11 seg_",
        "4 c_"
      ],
      [
        "0 c_1 c_3 c_4 c_6 c_8 c_11 seg_1",
        " c_1 c_3 c_4 c_6 c_8 c_11 seg_"
      ],
      [
        "4 c_1 c_3 c_4 c_6 c_8 c_11 seg_",
        "5 c_1 c_3 c_4 c_6 c_8 c_11 seg_"
      ],
      [
        "2 c_1 c_3 c_4 c_6 c_8 c_11 seg_",
        "3 c_1 c_3 c_4 c_6 c_8 c_11 seg_"
      ],
      [
        "6 c_1 c_3 c_4 c_6 c_8 c_11 seg_",
        "7 c_1 c_3 c_4 c_6 c_8 c_11 seg_"
      ],
      [
        "3 c_0 c_2 c_3 c_5 c_7 c_8 c_10 seg_4 c_0 c_2 c_3 c_5 c_7 c_8 c_10 seg_5 c_0 c_2 c_3 c_5 c_7 c_8 c_10 seg_6 c_0 c_2 c_3 c_5 c_7 c_8 c_10 seg_",
        "7 c_0 c_2 c_3 c_5 c_7 c_8 c_10 seg_0 c_0 c_2 c_3 c_5 c_7 c_8 c_10 seg_1 c_0 c_2 c_3 c_5 c_7 c_8 c_10 seg_2 c_0 c_2 c_3 c_5 c_7 c_8 c_10 seg_"
      ],
      [
        "0 c_2 c_3 c_5 c_7 c_9 c_10 seg_",
        "2 c_"
      ],
      [
        "0 c_2 c_3 c_5 c_7 c_9 c_10 seg_",
        "3 c_"
      ],
      [
        "0 c_",
        "0 c_2 c_3 c_5 c_7 c_9 c_10 seg_1 c_"
      ],
      [
        "0 c_2 c_3 c_5 c_7 c_9 c_10 seg_",
        "4 c_"
      ],
      [
        "4 c_0 c_2 c_4 c_5 c_7 c_9 c_11 seg_5 c_0 c_2 c_4 c_5 c_7 c_9 c_11 seg_",
        "6 c_0 c_2 c_4 c_5 c_7 c_9 c_11 seg_7 c_0 c_2 c_4 c_5 c_7 c_9 c_11 seg_"
      ],
      [
        "0 c_2 c_3 c_5 c_7 c_9 c_10 seg_",
        "7 c_"
      ],
      [
        "0 c_2 c_3 c_5 c_7 c_9 c_10 seg_",
        "5 c_"
      ],
      [
        "0 c_2 c_3 c_5 c_7 c_9 c_10 seg_",
        "6 c_"
      ],
      [
        "0 c_0 c_2 c_4 c_5 c_7 c_9 c_11 seg_1 c_0 c_2 c_4 c_5 c_7 c_9 c_11 seg_",
        "2 c_0 c_2 c_4 c_5 c_7 c_9 c_11 seg_3 c_0 c_2 c_4 c_5 c_7 c_9 c_11 seg_"
      ],
      [
        "4 c_1 c_3 c_6 c_8 c_10 c_11 seg_5 c_1 c_3 c_6 c_8 c_10 c_11 seg_6 c_1 c_3 c_6 c_8 c_10 c_11 seg_7 c_1 c_3 c_6 c_8 c_10 c_11 seg_0 c_1 c_3 c_6 c_8 c_10 c_11 seg_1 c_1 c_3 c_6 c_8 c_10 c_11 seg_2 c_1 c_3 c_6 c_8 c_10 c_11 seg_3 c_1 c_3 c_6 c_8 c_10 c_11 seg_",
        "4 c_1 c_3 c_6 c_8 c_10 c_11 seg_5 c_1 c_3 c_6 c_8 c_10 c_11 seg_6 c_1 c_3 c_6 c_8 c_10 c_11 seg_7 c_1 c_3 c_6 c_8 c_10 c_11 seg_0 c_1 c_3 c_6 c_8 c_10 c_11 seg_1 c_1 c_3 c_6 c_8 c_10 c_11 seg_2 c_1 c_3 c_6 c_8 c_10 c_11 seg_3 c_1 c_3 c_6 c_8 c_10 c_11 seg_"
      ],
      [
        "0 c_2 c_3 c_5 c_7 c_9 c_10 seg_",
        "0 c_0 c_2 c_3 c_5 c_7 c_9 c_10 seg_1 c_"
      ],
      [
        "0 c_1 c_2 c_",
        "4 c_6 c_7 c_9 c_11 seg_"
      ],
      [
        "0 c_2 c_3 c_5 c_7 c_9 c_10 seg_3 c_",
        "0 c_2 c_3 c_5 c_7 c_9 c_10 seg_4 c_"
      ],
      [
        "0 c_1 c_3 c_5 c_",
        "7 c_8 seg_"
      ],
      [
        "0 c_2 c_3 c_5 c_7 c_9 c_10 seg_6 c_",
        "0 c_2 c_3 c_5 c_7 c_9 c_10 seg_7 c_"
      ],
      [
        "9 c_10 seg_",
        "5 c_"
      ],
      [
        "9 c_10 seg_",
        "6 c_"
      ],
      [
        "9 c_10 seg_",
        "4 c_"
      ],
      [
        "9 c_10 seg_",
        "7 c_"
      ],
      [
        "9 c_10 seg_",
        "3 c_"
      ],
      [
        "7 c_11 seg_",
        "2 c_"
      ],
      [
        " c_1 c_2 c_4 c_",
        "9 seg_"
      ],
      [
        "0 c_1 c_3 c_4 c_6 c_8 c_11 seg_1 c_1 c_3 c_4 c_6 c_8 c_11 seg_",
        "2 c_1 c_3 c_4 c_6 c_8 c_11 seg_3 c_1 c_3 c_4 c_6 c_8 c_11 seg_"
      ],
      [
        "4 c_1 c_3 c_4 c_6 c_8 c_11 seg_5 c_1 c_3 c_4 c_6 c_8 c_11 seg_",
        "6 c_1 c_3 c_4 c_6 c_8 c_11 seg_7 c_1 c_3 c_4 c_6 c_8 c_11 seg_"
      ],
      [
        "0 c_2 c_3 c_5 c_7 c_9 c_10 seg_3 c_0 c_2 c_3 c_5 c_7 c_9 c_10 seg_4 c_",
        "0 c_2 c_3 c_5 c_7 c_9 c_10 seg_5 c_"
      ],
      [
        "0 c_2 c_3 c_5 c_7 c_9 c_10 seg_0 c_0 c_2 c_3 c_5 c_7 c_9 c_10 seg_1 c_",
        "0 c_2 c_3 c_5 c_7 c_9 c_10 seg_2 c_"
      ],
      [
        "0 c_4 c_5 c_",
        "7 c_9 c_11 seg_"
      ],
      [
        "9 c_10 seg_",
        "2 c_"
      ],
      [
        "2 c_0 c_1 c_2 c_3 c_4 c_5 c_6 c_7 c_8 c_9 c_10 c_11 seg_3 c_0 c_1 c_2 c_3 c_4 c_5 c_6 c_7 c_8 c_9 c_10 c_11 seg_4 c_",
        "0 c_1 c_2 c_3 c_4 c_5 c_6 c_7 c_8 c_9 c_10 c_11 seg_"
      ],
      [
        "3",
        " c_1 c_3 c_"
      ],
      [
        "5",
        " c_1 c_3 c_"
      ],
      [
        "4",
        " c_1 c_3 c_"
      ],
      [
        "2",
        " c_1 c_3 c_"
      ],
      [
        "6",
        " c_1 c_3 c_"
      ],
      [
        "7",
        " c_1 c_3 c_"
      ],
      [
        "0 c_",
        "4 c_8 c_9 c_11 seg_"
      ],
      [
        "0 c_0 c_2 c_4 c_5 c_7 c_9 c_11 seg_1 c_0 c_2 c_4 c_5 c_7 c_9 c_11 seg_2 c_0 c_2 c_4 c_5 c_7 c_9 c_11 seg_3 c_0 c_2 c_4 c_5 c_7 c_9 c_11 seg_",
        "4 c_0 c_2 c_4 c_5 c_7 c_9 c_11 seg_5 c_0 c_2 c_4 c_5 c_7 c_9 c_11 seg_6 c_0 c_2 c_4 c_5 c_7 c_9 c_11 seg_7 c_0 c_2 c_4 c_5 c_7 c_9 c_11 seg_"
      ],
      [
        "0 c_2 c_3 c_5 c_7 c_9 c_10 seg_3 c_0 c_2 c_3 c_5 c_7 c_9 c_10 seg_4 c_0 c_2 c_3 c_5 c_7 c_9 c_10 seg_5 c_",
        "0 c_2 c_3 c_5 c_7 c_9 c_10 seg_6 c_0 c_2 c_3 c_5 c_7 c_9 c_10 seg_7 c_"
      ],
      [
        "2 c_0 c_1 c_2 c_3 c_4 c_5 c_6 c_7 c_8 c_9 c_10 c_11 seg_3 c_0 c_1 c_2 c_3 c_4 c_5 c_6 c_7 c_8 c_9 c_10 c_11 seg_4 c_0 c_1 c_2 c_3 c_4 c_5 c_6 c_7 c_8 c_9 c_10 c_11 seg_",
        "5 c_"
      ],
      [
        "9 seg_",
        "6 c_"
      ],
      [
        " c_1 c_2 c_4 c_6 c_",
        "8 c_9 seg_"
      ],
      [
        "3 c_0 c_2 c_3 c_5 c_7 c_8 c_10 seg_4 c_0 c_2 c_3 c_5 c_7 c_8 c_10 seg_5 c_0 c_2 c_3 c_5 c_7 c_8 c_10 seg_6 c_0 c_2 c_3 c_5 c_7 c_8 c_10 seg_7 c_0 c_2 c_3 c_5 c_7 c_8 c_10 seg_0 c_0 c_2 c_3 c_5 c_7 c_8 c_10 seg_1 c_0 c_2 c_3 c_5 c_7 c_8 c_10 seg_2 c_0 c_2 c_3 c_5 c_7 c_8 c_10 seg_",
        "3 c_0 c_2 c_3 c_5 c_7 c_8 c_10 seg_4 c_0 c_2 c_3 c_5 c_7 c_8 c_10 seg_5 c_0 c_2 c_3 c_5 c_7 c_8 c_10 seg_6 c_0 c_2 c_3 c_5 c_7 c_8 c_10 seg_7 c_0 c_2 c_3 c_5 c_7 c_8 c_10 seg_0 c_0 c_2 c_3 c_5 c_7 c_8 c_10 seg_1 c_0 c_2 c_3 c_5 c_7 c_8 c_10 seg_2 c_0 c_2 c_3 c_5 c_7 c_8 c_10 seg_"
      ],
      [
        "7 c_11 seg_",
        "1 c_"
      ],
      [
        "9 seg_",
        "5 c_"
      ],
      [
        "9 seg_",
        "4 c_"
      ],
      [
        "9 seg_",
        "3 c_"
      ],
      [
        "0 c_3 c_",
        "6 c_"
      ],
      [
        "9 seg_",
        "7 c_"
      ],
      [
        "0 c_1 c_3 c_4 c_6 c_8 c_11 seg_1 c_1 c_3 c_4 c_6 c_8 c_11 seg_2 c_1 c_3 c_4 c_6 c_8 c_11 seg_3 c_1 c_3 c_4 c_6 c_8 c_11 seg_",
        "4 c_1 c_3 c_4 c_6 c_8 c_11 seg_5 c_1 c_3 c_4 c_6 c_8 c_11 seg_6 c_1 c_3 c_4 c_6 c_8 c_11 seg_7 c_1 c_3 c_4 c_6 c_8 c_11 seg_"
      ],
      [
        "0 c_2 c_4 c_5 c_7 c_9 c_10 seg_",
        "3 c_"
      ],
      [
        "0 c_2 c_4 c_5 c_7 c_9 c_10 seg_",
        "7 c_"
      ],
      [
        "6",
        " seg_"
      ],
      [
        "0 c_2 c_4 c_5 c_7 c_9 c_10 seg_",
        "4 c_"
      ],
      [
        "0 c_2 c_3 c_5 c_7 c_9 c_10 seg_3 c_0 c_2 c_3 c_5 c_7 c_9 c_10 seg_4 c_0 c_2 c_3 c_5 c_7 c_9 c_10 seg_5 c_0 c_2 c_3 c_5 c_7 c_9 c_10 seg_6 c_0 c_2 c_3 c_5 c_7 c_9 c_10 seg_7 c_",
        "0 c_2 c_3 c_5 c_7 c_9 c_10 seg_0 c_0 c_2 c_3 c_5 c_7 c_9 c_10 seg_1 c_0 c_2 c_3 c_5 c_7 c_9 c_10 seg_2 c_"
      ],
      [
        "0 c_2 c_4 c_5 c_7 c_9 c_10 seg_",
        "2 c_"
      ],
      [
        "0 c_2 c_4 c_5 c_7 c_9 c_10 seg_",
        "6 c_"
      ],
      [
        "0 c_2 c_4 c_5 c_7 c_9 c_10 seg_",
        "5 c_"
      ],
      [
        "0 c_",
        "0 c_2 c_4 c_5 c_7 c_9 c_10 seg_1 c_"
      ],
      [
        "2",
        " c_1 c_2 c_4 c_6 c_7 c_9 c_11 seg_"
      ],
      [
        "3",
        " c_1 c_2 c_4 c_6 c_7 c_9 c_11 seg_"
      ],
      [
        "0 c_4 c_5 c_",
        "7 seg_"
      ],
      [
        "7",
        " c_1 c_2 c_4 c_6 c_7 c_9 c_11 seg_"
      ],
      [
        "4",
        " c_1 c_2 c_4 c_6 c_7 c_9 c_11 seg_"
      ],
      [
        "5",
        " c_1 c_2 c_4 c_6 c_7 c_9 c_11 seg_"
      ],
      [
        "6",
        " c_1 c_2 c_4 c_6 c_7 c_9 c_11 seg_"
      ],
      [
        "7 c_10 seg_",
        "6 c_"
      ],
      [
        "7 c_10 seg_",
        "5 c_"
      ],
      [
        "1",
        " c_1 c_2 c_4 c_6 c_7 c_9 c_11 seg_"
      ],
      [
        "7 c_10 seg_",
        "7 c_"
      ],
      [
        "7 c_10 seg_",
        "4 c_"
      ],
      [
        "9 seg_",
        "2 c_"
      ],
      [
        "0 c_2 c_4 c_5 c_7 c_9 c_10 seg_7 c_",
        "0 c_2 c_4 c_5 c_7 c_9 c_10 seg_"
      ],
      [
        "0 c_2 c_4 c_5 c_7 c_9 c_10 seg_2 c_",
        "0 c_2 c_4 c_5 c_7 c_9 c_10 seg_3 c_"
      ],
      [
        "2 c_",
        "4 c_8 c_9 c_11 seg_"
      ],
      [
        "0 c_2 c_3 c_5 c_",
        "6 c_"
      ],
      [
        "0 c_2 c_4 c_5 c_7 c_9 c_10 seg_4 c_",
        "0 c_2 c_4 c_5 c_7 c_9 c_10 seg_5 c_"
      ],
      [
        "2 c_1 c_2 c_4 c_6 c_7 c_9 c_11 seg_",
        "3 c_1 c_2 c_4 c_6 c_7 c_9 c_11 seg_"
      ],
      [
        "0 c_1 c_2 c_4 c_6 c_7 c_9 c_11 seg_",
        "1 c_1 c_2 c_4 c_6 c_7 c_9 c_11 seg_"
      ],
      [
        "0 c_4 c_",
        "9 c_11 seg_"
      ],
      [
        "4 c_1 c_2 c_4 c_6 c_7 c_9 c_11 seg_",
        "5 c_1 c_2 c_4 c_6 c_7 c_9 c_11 seg_"
      ],
      [
        "2 c_",
        "3 c_5 c_6 c_"
      ],
      [
        "6 c_1 c_2 c_4 c_6 c_7 c_9 c_11 seg_",
        "7 c_1 c_2 c_4 c_6 c_7 c_9 c_11 seg_"
      ],
      [
        "0 c_1 c_3 c_6 c_",
        "8 seg_"
      ],
      [
        "0 c_2 c_4 c_5 c_7 c_9 c_10 seg_6 c_",
        "0 c_2 c_4 c_5 c_7 c_9 c_10 seg_7 c_0 c_2 c_4 c_5 c_7 c_9 c_10 seg_"
      ],
      [
        "7",
        " c_1 c_3 c_4 c_6 c_8 c_9 c_11 seg_"
      ],
      [
        "3",
        " c_1 c_3 c_4 c_6 c_8 c_9 c_11 seg_"
      ],
      [
        "2",
        " c_1 c_3 c_4 c_6 c_8 c_9 c_11 seg_"
      ],
      [
        "5",
        " c_1 c_3 c_4 c_6 c_8 c_9 c_11 seg_"
      ],
      [
        "6",
        " c_1 c_3 c_4 c_6 c_8 c_9 c_11 seg_"
      ],
      [
        "4",
        " c_1 c_3 c_4 c_6 c_8 c_9 c_11 seg_"
      ],
      [
        "2 c_0 c_1 c_2 c_3 c_4 c_5 c_6 c_7 c_8 c_9 c_10 c_11 seg_3 c_0 c_1 c_2 c_3 c_4 c_5 c_6 c_7 c_8 c_9 c_10 c_11 seg_4 c_0 c_1 c_2 c_3 c_4 c_5 c_6 c_7 c_8 c_9 c_10 c_11 seg_5 c_",
        "0 c_1 c_2 c_3 c_4 c_5 c_6 c_7 c_8 c_9 c_10 c_11 seg_"
      ],
      [
        "0 c_0 c_2 c_4 c_5 c_7 c_9 c_10 seg_1 c_",
        "0 c_2 c_4 c_5 c_7 c_9 c_10 seg_2 c_0 c_2 c_4 c_5 c_7 c_9 c_10 seg_3 c_"
      ],
      [
        "0 c_0 c_2 c_4 c_5 c_7 c_9 c_11 seg_1 c_0 c_2 c_4 c_5 c_7 c_9 c_11 seg_2 c_0 c_2 c_4 c_5 c_7 c_9 c_11 seg_3 c_0 c_2 c_4 c_5 c_7 c_9 c_11 seg_4 c_0 c_2 c_4 c_5 c_7 c_9 c_11 seg_5 c_0 c_2 c_4 c_5 c_7 c_9 c_11 seg_6 c_0 c_2 c_4 c_5 c_7 c_9 c_11 seg_7 c_0 c_2 c_4 c_5 c_7 c_9 c_11 seg_",
        "0 c_0 c_2 c_4 c_5 c_7 c_9 c_11 seg_1 c_0 c_2 c_4 c_5 c_7 c_9 c_11 seg_2 c_0 c_2 c_4 c_5 c_7 c_9 c_11 seg_3 c_0 c_2 c_4 c_5 c_7 c_9 c_11 seg_4 c_0 c_2 c_4 c_5 c_7 c_9 c_11 seg_5 c_0 c_2 c_4 c_5 c_7 c_9 c_11 seg_6 c_0 c_2 c_4 c_5 c_7 c_9 c_11 seg_7 c_0 c_2 c_4 c_5 c_7 c_9 c_11 seg_"
      ],
      [
        "0 c_2 c_4 c_",
        "7 seg_"
      ],
      [
        "0 c_1 c_3 c_",
        "4 c_6 c_8 c_9 c_11 seg_1"
      ],
      [
        "2 c_3 c_",
        "5 c_10 seg_"
      ],
      [
        "7 c_9 seg_",
        "0 c_"
      ],
      [
        " c_1 c_3 c_4 c_",
        "6 c_11 seg_"
      ],
      [
        "0 c_1 c_3 c_4 c_6 c_8 c_9 c_11 seg_1",
        " c_1 c_3 c_4 c_6 c_8 c_9 c_11 seg_"
      ],
      [
        "3 c_1 c_3 c_4 c_6 c_8 c_9 c_11 seg_",
        "4 c_1 c_3 c_4 c_6 c_8 c_9 c_11 seg_"
      ],
      [
        "6 c_1 c_3 c_4 c_6 c_8 c_9 c_11 seg_",
        "7 c_1 c_3 c_4 c_6 c_8 c_9 c_11 seg_"
      ],
      [
        "2 c_1 c_2 c_4 c_6 c_7 c_9 c_11 seg_3 c_1 c_2 c_4 c_6 c_7 c_9 c_11 seg_",
        "4 c_1 c_2 c_4 c_6 c_7 c_9 c_11 seg_5 c_1 c_2 c_4 c_6 c_7 c_9 c_11 seg_"
      ],
      [
        "2 c_0 c_1 c_2 c_3 c_4 c_5 c_6 c_7 c_8 c_9 c_10 c_11 seg_3 c_0 c_1 c_2 c_3 c_4 c_5 c_6 c_7 c_8 c_9 c_10 c_11 seg_4 c_0 c_1 c_2 c_3 c_4 c_5 c_6 c_7 c_8 c_9 c_10 c_11 seg_5 c_0 c_1 c_2 c_3 c_4 c_5 c_6 c_7 c_8 c_9 c_10 c_11 seg_",
        "6 c_"
      ],
      [
        "6 c_1 c_2 c_4 c_6 c_7 c_9 c_11 seg_7 c_1 c_2 c_4 c_6 c_7 c_9 c_11 seg_",
        "0 c_1 c_2 c_4 c_6 c_7 c_9 c_11 seg_1 c_1 c_2 c_4 c_6 c_7 c_9 c_11 seg_"
      ],
      [
        "0 c_2 c_4 c_5 c_7 c_9 c_10 seg_4 c_0 c_2 c_4 c_5 c_7 c_9 c_10 seg_5 c_",
        "0 c_2 c_4 c_5 c_7 c_9 c_10 seg_6 c_0 c_2 c_4 c_5 c_7 c_9 c_10 seg_7 c_0 c_2 c_4 c_5 c_7 c_9 c_10 seg_"
      ],
      [
        "0 c_2 c_4 c_",
        "8 c_9 c_11 seg_"
      ],
      [
        "7 c_",
        "0 c_2 c_4 c_6 c_7 c_9 c_11 seg_"
      ],
      [
        "6 c_",
        "0 c_2 c_4 c_6 c_7 c_9 c_11 seg_"
      ],
      [
        "9 seg_",
        "1 c_"
      ],
      [
        "2 c_",
        "0 c_2 c_4 c_6 c_7 c_9 c_11 seg_"
      ],
      [
        "5 c_",
        "0 c_2 c_4 c_6 c_7 c_9 c_11 seg_"
      ],
      [
        "4 c_",
        "0 c_2 c_4 c_6 c_7 c_9 c_11 seg_"
      ],
      [
        "0 c_",
        "0 c_2 c_4 c_6 c_7 c_9 c_11 seg_1 c_"
      ],
      [
        "4 c_6 c_",
        "7 c_10 c_11 seg_"
      ],
      [
        "0 c_1 c_3 c_4 c_6 c_8 c_9 c_11 seg_1 c_1 c_3 c_4 c_6 c_8 c_9 c_11 seg_",
        "2 c_1 c_3 c_4 c_6 c_8 c_9 c_11 seg_"
      ],
      [
        "b",
        "o"
      ],
      [
        "s",
        " seg_"
      ],
      [
        "bo",
        "s seg_"
      ],
      [
        "3 c_1 c_3 c_4 c_6 c_8 c_9 c_11 seg_4 c_1 c_3 c_4 c_6 c_8 c_9 c_11 seg_",
        "5 c_1 c_3 c_4 c_6 c_8 c_9 c_11 seg_"
      ],
      [
        "3 c_",
        "0 c_2 c_4 c_6 c_7 c_9 c_11 seg_"
      ],
      [
        "0 c_1 c_3 c_4 c_6 c_8 c_11 seg_1 c_1 c_3 c_4 c_6 c_8 c_11 seg_2 c_1 c_3 c_4 c_6 c_8 c_11 seg_3 c_1 c_3 c_4 c_6 c_8 c_11 seg_4 c_1 c_3 c_4 c_6 c_8 c_11 seg_5 c_1 c_3 c_4 c_6 c_8 c_11 seg_6 c_1 c_3 c_4 c_6 c_8 c_11 seg_7 c_1 c_3 c_4 c_6 c_8 c_11 seg_",
        "0 c_1 c_3 c_4 c_6 c_8 c_11 seg_1 c_1 c_3 c_4 c_6 c_8 c_11 seg_2 c_1 c_3 c_4 c_6 c_8 c_11 seg_3 c_1 c_3 c_4 c_6 c_8 c_11 seg_4 c_1 c_3 c_4 c_6 c_8 c_11 seg_5 c_1 c_3 c_4 c_6 c_8 c_11 seg_6 c_1 c_3 c_4 c_6 c_8 c_11 seg_7 c_1 c_3 c_4 c_6 c_8 c_11 seg_"
      ],
      [
        "0 c_2 c_3 c_5 c_7 c_9 c_10 seg_3 c_0 c_2 c_3 c_5 c_7 c_9 c_10 seg_4 c_0 c_2 c_3 c_5 c_7 c_9 c_10 seg_5 c_0 c_2 c_3 c_5 c_7 c_9 c_10 seg_6 c_0 c_2 c_3 c_5 c_7 c_9 c_10 seg_7 c_0 c_2 c_3 c_5 c_7 c_9 c_10 seg_0 c_0 c_2 c_3 c_5 c_7 c_9 c_10 seg_1 c_0 c_2 c_3 c_5 c_7 c_9 c_10 seg_2 c_",
        "0 c_2 c_3 c_5 c_7 c_9 c_10 seg_3 c_0 c_2 c_3 c_5 c_7 c_9 c_10 seg_4 c_0 c_2 c_3 c_5 c_7 c_9 c_10 seg_5 c_0 c_2 c_3 c_5 c_7 c_9 c_10 seg_6 c_0 c_2 c_3 c_5 c_7 c_9 c_10 seg_7 c_0 c_2 c_3 c_5 c_7 c_9 c_10 seg_0 c_0 c_2 c_3 c_5 c_7 c_9 c_10 seg_1 c_0 c_2 c_3 c_5 c_7 c_9 c_10 seg_2 c_"
      ],
      [
        "7 c_10 seg_",
        "3 c_"
      ],
      [
        "0 c_0 c_2 c_4 c_6 c_7 c_9 c_11 seg_1 c_",
        "0 c_2 c_4 c_6 c_7 c_9 c_11 seg_"
      ],
      [
        "4 c_",
        "8 c_11 seg_"
      ],
      [
        "0 c_1 c_3 c_4 c_6 c_",
        "8 seg_"
      ],
      [
        "5 c_0 c_2 c_4 c_6 c_7 c_9 c_11 seg_",
        "6 c_0 c_2 c_4 c_6 c_7 c_9 c_11 seg_"
      ],
      [
        "2 c_0 c_2 c_4 c_6 c_7 c_9 c_11 seg_",
        "3 c_0 c_2 c_4 c_6 c_7 c_9 c_11 seg_"
      ],
      [
        "0 c_2 c_5 c_",
        "7 c_9 c_11 seg_"
      ],
      [
        "3 c_5 c_",
        "6 c_10 c_11 seg_"
      ],
      [
        "7 c_10 seg_",
        "2 c_"
      ],
      [
        "0 c_2 c_4 c_5 c_7 c_9 c_10 seg_4 c_0 c_2 c_4 c_5 c_7 c_9 c_10 seg_5 c_0 c_2 c_4 c_5 c_7 c_9 c_10 seg_6 c_0 c_2 c_4 c_5 c_7 c_9 c_10 seg_7 c_0 c_2 c_4 c_5 c_7 c_9 c_10 seg_",
        "0 c_0 c_2 c_4 c_5 c_7 c_9 c_10 seg_1 c_0 c_2 c_4 c_5 c_7 c_9 c_10 seg_2 c_0 c_2 c_4 c_5 c_7 c_9 c_10 seg_3 c_"
      ],
      [
        "7 c_0 c_2 c_4 c_6 c_7 c_9 c_11 seg_",
        "0 c_0 c_2 c_4 c_6 c_7 c_9 c_11 seg_1 c_0 c_2 c_4 c_6 c_7 c_9 c_11 seg_"
      ],
      [
        "6 c_1 c_3 c_4 c_6 c_8 c_9 c_11 seg_7 c_1 c_3 c_4 c_6 c_8 c_9 c_11 seg_",
        "0 c_1 c_3 c_4 c_6 c_8 c_9 c_11 seg_1 c_1 c_3 c_4 c_6 c_8 c_9 c_11 seg_2 c_1 c_3 c_4 c_6 c_8 c_9 c_11 seg_"
      ],
      [
        "4 c_0 c_2 c_4 c_6 c_7 c_9 c_11 seg_",
        "5 c_0 c_2 c_4 c_6 c_7 c_9 c_11 seg_6 c_0 c_2 c_4 c_6 c_7 c_9 c_11 seg_"
      ],
      [
        "2 c_1 c_2 c_4 c_6 c_7 c_9 c_11 seg_3 c_1 c_2 c_4 c_6 c_7 c_9 c_11 seg_4 c_1 c_2 c_4 c_6 c_7 c_9 c_11 seg_5 c_1 c_2 c_4 c_6 c_7 c_9 c_11 seg_",
        "6 c_1 c_2 c_4 c_6 c_7 c_9 c_11 seg_7 c_1 c_2 c_4 c_6 c_7 c_9 c_11 seg_0 c_1 c_2 c_4 c_6 c_7 c_9 c_11 seg_1 c_1 c_2 c_4 c_6 c_7 c_9 c_11 seg_"
      ],
      [
        "2 c_0 c_1 c_2 c_3 c_4 c_5 c_6 c_7 c_8 c_9 c_10 c_11 seg_3 c_0 c_1 c_2 c_3 c_4 c_5 c_6 c_7 c_8 c_9 c_10 c_11 seg_4 c_0 c_1 c_2 c_3 c_4 c_5 c_6 c_7 c_8 c_9 c_10 c_11 seg_5 c_0 c_1 c_2 c_3 c_4 c_5 c_6 c_7 c_8 c_9 c_10 c_11 seg_6 c_",
        "0 c_1 c_2 c_3 c_4 c_5 c_6 c_7 c_8 c_9 c_10 c_11 seg_"
      ],
      [
        "4 c_6 c_",
        "8 c_10 seg_"
      ],
      [
        "7 c_8 seg_",
        "7 c_"
      ],
      [
        "7 c_8 seg_",
        "6 c_"
      ],
      [
        "0 c_1 c_",
        "3 c_5 c_6 c_8 c_10 c_11 seg_"
      ],
      [
        "7 c_8 seg_",
        "3 c_"
      ],
      [
        "7 c_8 seg_",
        "5 c_"
      ],
      [
        "7 c_8 seg_",
        "4 c_"
      ],
      [
        "0 c_1 c_3 c_",
        "8 seg_"
      ],
      [
        "7 c_0 c_2 c_4 c_6 c_7 c_9 c_11 seg_0 c_0 c_2 c_4 c_6 c_7 c_9 c_11 seg_1 c_0 c_2 c_4 c_6 c_7 c_9 c_11 seg_",
        "2 c_0 c_2 c_4 c_6 c_7 c_9 c_11 seg_3 c_0 c_2 c_4 c_6 c_7 c_9 c_11 seg_"
      ],
      [
        "7 c_8 seg_",
        "2 c_"
      ],
      [
        "2 c_0 c_1 c_2 c_3 c_4 c_5 c_6 c_7 c_8 c_9 c_10 c_11 seg_3 c_0 c_1 c_2 c_3 c_4 c_5 c_6 c_7 c_8 c_9 c_10 c_11 seg_4 c_0 c_1 c_2 c_3 c_4 c_5 c_6 c_7 c_8 c_9 c_10 c_11 seg_5 c_0 c_1 c_2 c_3 c_4 c_5 c_6 c_7 c_8 c_9 c_10 c_11 seg_6 c_0 c_1 c_2 c_3 c_4 c_5 c_6 c_7 c_8 c_9 c_10 c_11 seg_",
        "7 c_"
      ],
      [
        "6 c_1 c_3 c_4 c_6 c_8 c_9 c_11 seg_7 c_1 c_3 c_4 c_6 c_8 c_9 c_11 seg_0 c_1 c_3 c_4 c_6 c_8 c_9 c_11 seg_1 c_1 c_3 c_4 c_6 c_8 c_9 c_11 seg_2 c_1 c_3 c_4 c_6 c_8 c_9 c_11 seg_",
        "3 c_1 c_3 c_4 c_6 c_8 c_9 c_11 seg_4 c_1 c_3 c_4 c_6 c_8 c_9 c_11 seg_5 c_1 c_3 c_4 c_6 c_8 c_9 c_11 seg_"
      ],
      [
        "9 c_10 seg_",
        "1 c_"
      ],
      [
        "7 c_8 seg_",
        "1 c_"
      ],
      [
        " c_1 c_2 c_",
        "4 c_5 c_6 c_"
      ],
      [
        "0 c_",
        "4 c_6 c_9 c_11 seg_"
      ],
      [
        "6 c_0 c_2 c_4 c_7 c_9 c_11 seg_7 c_0 c_2 c_4 c_7 c_9 c_11 seg_0 c_0 c_2 c_4 c_7 c_9 c_11 seg_1 c_0 c_2 c_4 c_7 c_9 c_11 seg_2 c_0 c_2 c_4 c_7 c_9 c_11 seg_3 c_0 c_2 c_4 c_7 c_9 c_11 seg_4 c_0 c_2 c_4 c_7 c_9 c_11 seg_5 c_0 c_2 c_4 c_7 c_9 c_11 seg_6 c_0 c_2 c_4 c_7 c_9 c_11 seg_7 c_0 c_2 c_4 c_7 c_9 c_11 seg_0 c_0 c_2 c_4 c_7 c_9 c_11 seg_1 c_0 c_2 c_4 c_7 c_9 c_11 seg_2 c_0 c_2 c_4 c_7 c_9 c_11 seg_3 c_0 c_2 c_4 c_7 c_9 c_11 seg_4 c_0 c_2 c_4 c_7 c_9 c_11 seg_5 c_0 c_2 c_4 c_7 c_9 c_11 seg_",
        "6 c_0 c_2 c_4 c_7 c_9 c_11 seg_7 c_0 c_2 c_4 c_7 c_9 c_11 seg_0 c_0 c_2 c_4 c_7 c_9 c_11 seg_1 c_0 c_2 c_4 c_7 c_9 c_11 seg_2 c_0 c_2 c_4 c_7 c_9 c_11 seg_3 c_0 c_2 c_4 c_7 c_9 c_11 seg_4 c_0 c_2 c_4 c_7 c_9 c_11 seg_5 c_0 c_2 c_4 c_7 c_9 c_11 seg_6 c_0 c_2 c_4 c_7 c_9 c_11 seg_7 c_0 c_2 c_4 c_7 c_9 c_11 seg_0 c_0 c_2 c_4 c_7 c_9 c_11 seg_1 c_0 c_2 c_4 c_7 c_9 c_11 seg_2 c_0 c_2 c_4 c_7 c_9 c_11 seg_3 c_0 c_2 c_4 c_7 c_9 c_11 seg_4 c_0 c_2 c_4 c_7 c_9 c_11 seg_5 c_0 c_2 c_4 c_7 c_9 c_11 seg_"
      ],
      [
        "2 c_",
        "0 c_1 c_3 c_5 c_7 c_8 c_10 seg_"
      ],
      [
        "7 c_",
        "0 c_1 c_3 c_5 c_7 c_8 c_10 seg_"
      ],
      [
        "0 c_",
        "0 c_1 c_3 c_5 c_7 c_8 c_10 seg_"
      ],
      [
        "5 c_",
        "0 c_1 c_3 c_5 c_7 c_8 c_10 seg_"
      ],
      [
        "3 c_",
        "0 c_1 c_3 c_5 c_7 c_8 c_10 seg_"
      ],
      [
        "4 c_",
        "0 c_1 c_3 c_5 c_7 c_8 c_10 seg_"
      ],
      [
        "1 c_",
        "0 c_1 c_3 c_5 c_7 c_8 c_10 seg_"
      ],
      [
        "5",
        " seg_"
      ],
      [
        "6 c_",
        "0 c_1 c_3 c_5 c_7 c_8 c_10 seg_"
      ],
      [
        "7 c_0 c_2 c_4 c_6 c_7 c_9 c_11 seg_0 c_0 c_2 c_4 c_6 c_7 c_9 c_11 seg_1 c_0 c_2 c_4 c_6 c_7 c_9 c_11 seg_2 c_0 c_2 c_4 c_6 c_7 c_9 c_11 seg_3 c_0 c_2 c_4 c_6 c_7 c_9 c_11 seg_",
        "4 c_0 c_2 c_4 c_6 c_7 c_9 c_11 seg_5 c_0 c_2 c_4 c_6 c_7 c_9 c_11 seg_6 c_0 c_2 c_4 c_6 c_7 c_9 c_11 seg_"
      ],
      [
        "0 c_0 c_1 c_3 c_5 c_7 c_8 c_10 seg_",
        "1 c_0 c_1 c_3 c_5 c_7 c_8 c_10 seg_"
      ],
      [
        "7 c_8 seg_",
        "0 c_"
      ],
      [
        "0 c_2 c_4 c_5 c_7 c_9 c_10 seg_4 c_0 c_2 c_4 c_5 c_7 c_9 c_10 seg_5 c_0 c_2 c_4 c_5 c_7 c_9 c_10 seg_6 c_0 c_2 c_4 c_5 c_7 c_9 c_10 seg_7 c_0 c_2 c_4 c_5 c_7 c_9 c_10 seg_0 c_0 c_2 c_4 c_5 c_7 c_9 c_10 seg_1 c_0 c_2 c_4 c_5 c_7 c_9 c_10 seg_2 c_0 c_2 c_4 c_5 c_7 c_9 c_10 seg_3 c_",
        "0 c_2 c_4 c_5 c_7 c_9 c_10 seg_4 c_0 c_2 c_4 c_5 c_7 c_9 c_10 seg_5 c_0 c_2 c_4 c_5 c_7 c_9 c_10 seg_6 c_0 c_2 c_4 c_5 c_7 c_9 c_10 seg_7 c_0 c_2 c_4 c_5 c_7 c_9 c_10 seg_0 c_0 c_2 c_4 c_5 c_7 c_9 c_10 seg_1 c_0 c_2 c_4 c_5 c_7 c_9 c_10 seg_2 c_0 c_2 c_4 c_5 c_7 c_9 c_10 seg_3 c_"
      ],
      [
        "5 c_0 c_1 c_3 c_5 c_7 c_8 c_10 seg_",
        "6 c_0 c_1 c_3 c_5 c_7 c_8 c_10 seg_"
      ],
      [
        "bos seg_",
        "0 c_0 c_1 c_2 c_3 c_4 c_5 c_6 c_7 c_8 c_9 c_10 c_11 seg_"
      ],
      [
        "2 c_0 c_1 c_3 c_5 c_7 c_8 c_10 seg_",
        "3 c_0 c_1 c_3 c_5 c_7 c_8 c_10 seg_"
      ],
      [
        "1 c_",
        "0 c_1 c_3 c_5 c_6 c_8 c_10 seg_"
      ],
      [
        "7 c_",
        "0 c_1 c_3 c_5 c_6 c_8 c_10 seg_"
      ],
      [
        "5 c_6 c_",
        "8 seg_"
      ],
      [
        "2",
        " c_1 c_2 c_4 c_6 c_8 c_9 c_11 seg_"
      ],
      [
        "2 c_",
        "0 c_1 c_3 c_5 c_6 c_8 c_10 seg_"
      ],
      [
        "4 c_",
        "0 c_1 c_3 c_5 c_6 c_8 c_10 seg_"
      ],
      [
        "6 c_",
        "0 c_1 c_3 c_5 c_6 c_8 c_10 seg_"
      ],
      [
        "3 c_",
        "0 c_1 c_3 c_5 c_6 c_8 c_10 seg_"
      ],
      [
        "4",
        " c_1 c_2 c_4 c_6 c_8 c_9 c_11 seg_"
      ],
      [
        "5 c_",
        "0 c_1 c_3 c_5 c_6 c_8 c_10 seg_"
      ],
      [
        "3",
        " c_1 c_2 c_4 c_6 c_8 c_9 c_11 seg_"
      ],
      [
        "5",
        " c_1 c_2 c_4 c_6 c_8 c_9 c_11 seg_"
      ],
      [
        "6",
        " c_1 c_2 c_4 c_6 c_8 c_9 c_11 seg_"
      ],
      [
        "0 c_",
        "0 c_1 c_3 c_5 c_6 c_8 c_10 seg_"
      ],
      [
        "7",
        " c_1 c_2 c_4 c_6 c_8 c_9 c_11 seg_"
      ],
      [
        "2 c_0 c_1 c_2 c_3 c_4 c_5 c_6 c_7 c_8 c_9 c_10 c_11 seg_3 c_0 c_1 c_2 c_3 c_4 c_5 c_6 c_7 c_8 c_9 c_10 c_11 seg_4 c_0 c_1 c_2 c_3 c_4 c_5 c_6 c_7 c_8 c_9 c_10 c_11 seg_5 c_0 c_1 c_2 c_3 c_4 c_5 c_6 c_7 c_8 c_9 c_10 c_11 seg_6 c_0 c_1 c_2 c_3 c_4 c_5 c_6 c_7 c_8 c_9 c_10 c_11 seg_7 c_",
        "0 c_1 c_2 c_3 c_4 c_5 c_6 c_7 c_8 c_9 c_10 c_11 seg_"
      ],
      [
        "2 c_1 c_2 c_4 c_6 c_7 c_9 c_11 seg_3 c_1 c_2 c_4 c_6 c_7 c_9 c_11 seg_4 c_1 c_2 c_4 c_6 c_7 c_9 c_11 seg_5 c_1 c_2 c_4 c_6 c_7 c_9 c_11 seg_6 c_1 c_2 c_4 c_6 c_7 c_9 c_11 seg_7 c_1 c_2 c_4 c_6 c_7 c_9 c_11 seg_0 c_1 c_2 c_4 c_6 c_7 c_9 c_11 seg_1 c_1 c_2 c_4 c_6 c_7 c_9 c_11 seg_",
        "2 c_1 c_2 c_4 c_6 c_7 c_9 c_11 seg_3 c_1 c_2 c_4 c_6 c_7 c_9 c_11 seg_4 c_1 c_2 c_4 c_6 c_7 c_9 c_11 seg_5 c_1 c_2 c_4 c_6 c_7 c_9 c_11 seg_6 c_1 c_2 c_4 c_6 c_7 c_9 c_11 seg_7 c_1 c_2 c_4 c_6 c_7 c_9 c_11 seg_0 c_1 c_2 c_4 c_6 c_7 c_9 c_11 seg_1 c_1 c_2 c_4 c_6 c_7 c_9 c_11 seg_"
      ],
      [
        "0 c_1 c_2 c_",
        "4 c_6 c_8 c_9 c_11 seg_1"
      ],
      [
        "7 c_0 c_1 c_3 c_5 c_7 c_8 c_10 seg_",
        "0 c_0 c_1 c_3 c_5 c_7 c_8 c_10 seg_1 c_0 c_1 c_3 c_5 c_7 c_8 c_10 seg_"
      ],
      [
        " c_1 c_2 c_6 c_",
        "7 c_9 c_11 seg_"
      ],
      [
        "6 c_",
        "8 c_9 seg_"
      ],
      [
        "4 c_0 c_1 c_3 c_5 c_7 c_8 c_10 seg_",
        "5 c_0 c_1 c_3 c_5 c_7 c_8 c_10 seg_6 c_0 c_1 c_3 c_5 c_7 c_8 c_10 seg_"
      ],
      [
        "1",
        " c_1 c_3 c_"
      ],
      [
        "6 c_0 c_1 c_3 c_5 c_6 c_8 c_10 seg_",
        "7 c_0 c_1 c_3 c_5 c_6 c_8 c_10 seg_"
      ],
      [
        "0 c_0 c_1 c_3 c_5 c_6 c_8 c_10 seg_",
        "1 c_0 c_1 c_3 c_5 c_6 c_8 c_10 seg_"
      ],
      [
        "2 c_0 c_1 c_3 c_5 c_6 c_8 c_10 seg_",
        "3 c_0 c_1 c_3 c_5 c_6 c_8 c_10 seg_"
      ],
      [
        "4 c_0 c_1 c_3 c_5 c_6 c_8 c_10 seg_",
        "5 c_0 c_1 c_3 c_5 c_6 c_8 c_10 seg_"
      ],
      [
        " c_1 c_2 c_4 c_6 c_8 c_9 c_11 seg_",
        "2 c_1 c_2 c_4 c_6 c_8 c_9 c_11 seg_"
      ],
      [
        "3 c_1 c_2 c_4 c_6 c_8 c_9 c_11 seg_",
        "4 c_1 c_2 c_4 c_6 c_8 c_9 c_11 seg_"
      ],
      [
        "6 c_1 c_",
        "3 c_5 c_6 c_8 c_10 c_11 seg_"
      ],
      [
        "1 c_1 c_",
        "3 c_5 c_6 c_8 c_10 c_11 seg_"
      ],
      [
        "4 c_1 c_",
        "3 c_5 c_6 c_8 c_10 c_11 seg_"
      ],
      [
        "5 c_1 c_2 c_4 c_6 c_8 c_9 c_11 seg_",
        "6 c_1 c_2 c_4 c_6 c_8 c_9 c_11 seg_"
      ],
      [
        "2 c_1 c_",
        "3 c_5 c_6 c_8 c_10 c_11 seg_"
      ],
      [
        "7 c_1 c_",
        "3 c_5 c_6 c_8 c_10 c_11 seg_"
      ],
      [
        "3 c_1 c_",
        "3 c_5 c_6 c_8 c_10 c_11 seg_"
      ],
      [
        "5 c_1 c_",
        "3 c_5 c_6 c_8 c_10 c_11 seg_"
      ],
      [
        "7 c_1 c_2 c_4 c_6 c_8 c_9 c_11 seg_",
        "0 c_1 c_2 c_4 c_6 c_8 c_9 c_11 seg_1"
      ],
      [
        "7 c_10 seg_",
        "1 c_"
      ],
      [
        "8 c_10 seg_",
        "3 c_"
      ],
      [
        "6 c_1 c_3 c_4 c_6 c_8 c_9 c_11 seg_7 c_1 c_3 c_4 c_6 c_8 c_9 c_11 seg_0 c_1 c_3 c_4 c_6 c_8 c_9 c_11 seg_1 c_1 c_3 c_4 c_6 c_8 c_9 c_11 seg_2 c_1 c_3 c_4 c_6 c_8 c_9 c_11 seg_3 c_1 c_3 c_4 c_6 c_8 c_9 c_11 seg_4 c_1 c_3 c_4 c_6 c_8 c_9 c_11 seg_5 c_1 c_3 c_4 c_6 c_8 c_9 c_11 seg_",
        "6 c_1 c_3 c_4 c_6 c_8 c_9 c_11 seg_7 c_1 c_3 c_4 c_6 c_8 c_9 c_11 seg_0 c_1 c_3 c_4 c_6 c_8 c_9 c_11 seg_1 c_1 c_3 c_4 c_6 c_8 c_9 c_11 seg_2 c_1 c_3 c_4 c_6 c_8 c_9 c_11 seg_3 c_1 c_3 c_4 c_6 c_8 c_9 c_11 seg_4 c_1 c_3 c_4 c_6 c_8 c_9 c_11 seg_5 c_1 c_3 c_4 c_6 c_8 c_9 c_11 seg_"
      ],
      [
        "7 c_11 seg_",
        "0 c_"
      ],
      [
        "7 c_1 c_3 c_5 c_6 c_8 c_10 c_11 seg_",
        "0 c_1 c_3 c_5 c_6 c_8 c_10 c_11 seg_"
      ],
      [
        "1 c_1 c_3 c_5 c_6 c_8 c_10 c_11 seg_",
        "2 c_1 c_3 c_5 c_6 c_8 c_10 c_11 seg_"
      ],
      [
        "5 c_1 c_3 c_5 c_6 c_8 c_10 c_11 seg_",
        "6 c_1 c_3 c_5 c_6 c_8 c_10 c_11 seg_"
      ],
      [
        "3 c_1 c_3 c_5 c_6 c_8 c_10 c_11 seg_",
        "4 c_1 c_3 c_5 c_6 c_8 c_10 c_11 seg_"
      ],
      [
        "4",
        " c_1 c_3 c_4 c_6 c_8 c_10 c_11 seg_"
      ],
      [
        "7",
        " c_1 c_3 c_4 c_6 c_8 c_10 c_11 seg_"
      ],
      [
        "7 c_0 c_1 c_3 c_5 c_7 c_8 c_10 seg_0 c_0 c_1 c_3 c_5 c_7 c_8 c_10 seg_1 c_0 c_1 c_3 c_5 c_7 c_8 c_10 seg_",
        "2 c_0 c_1 c_3 c_5 c_7 c_8 c_10 seg_3 c_0 c_1 c_3 c_5 c_7 c_8 c_10 seg_"
      ],
      [
        "3",
        " c_1 c_3 c_4 c_6 c_8 c_10 c_11 seg_"
      ],
      [
        "6 c_0 c_1 c_3 c_5 c_6 c_8 c_10 seg_7 c_0 c_1 c_3 c_5 c_6 c_8 c_10 seg_",
        "0 c_0 c_1 c_3 c_5 c_6 c_8 c_10 seg_1 c_0 c_1 c_3 c_5 c_6 c_8 c_10 seg_"
      ],
      [
        "6",
        " c_1 c_3 c_4 c_6 c_8 c_10 c_11 seg_"
      ],
      [
        "2",
        " c_1 c_3 c_4 c_6 c_8 c_10 c_11 seg_"
      ],
      [
        "0 c_1 c_3 c_4 c_6 c_",
        "8 c_10 c_11 seg_1"
      ],
      [
        "5",
        " c_1 c_3 c_4 c_6 c_8 c_10 c_11 seg_"
      ],
      [
        "2 c_0 c_1 c_3 c_5 c_6 c_8 c_10 seg_3 c_0 c_1 c_3 c_5 c_6 c_8 c_10 seg_",
        "4 c_0 c_1 c_3 c_5 c_6 c_8 c_10 seg_5 c_0 c_1 c_3 c_5 c_6 c_8 c_10 seg_"
      ],
      [
        "9 seg_",
        "1"
      ],
      [
        " c_1 c_2 c_4 c_6 c_8 c_9 c_11 seg_2 c_1 c_2 c_4 c_6 c_8 c_9 c_11 seg_",
        "3 c_1 c_2 c_4 c_6 c_8 c_9 c_11 seg_4 c_1 c_2 c_4 c_6 c_8 c_9 c_11 seg_"
      ],
      [
        " c_1 c_2 c_4 c_",
        "7 c_9 seg_"
      ],
      [
        "0 c_2 c_3 c_",
        "7 seg_"
      ],
      [
        "0 c_1 c_3 c_4 c_6 c_8 c_10 c_11 seg_1",
        " c_1 c_3 c_4 c_6 c_8 c_10 c_11 seg_"
      ],
      [
        "4 c_1 c_3 c_4 c_6 c_8 c_10 c_11 seg_",
        "5 c_1 c_3 c_4 c_6 c_8 c_10 c_11 seg_"
      ],
      [
        "2 c_1 c_3 c_4 c_6 c_8 c_10 c_11 seg_",
        "3 c_1 c_3 c_4 c_6 c_8 c_10 c_11 seg_"
      ],
      [
        "5 c_1 c_2 c_4 c_6 c_8 c_9 c_11 seg_6 c_1 c_2 c_4 c_6 c_8 c_9 c_11 seg_",
        "7 c_1 c_2 c_4 c_6 c_8 c_9 c_11 seg_0 c_1 c_2 c_4 c_6 c_8 c_9 c_11 seg_1"
      ],
      [
        "6 c_1 c_3 c_4 c_6 c_8 c_10 c_11 seg_",
        "7 c_1 c_3 c_4 c_6 c_8 c_10 c_11 seg_"
      ],
      [
        "0 c_2 c_4 c_6 c_7 c_9 c_11 seg_1 c_2 c_4 c_6 c_7 c_9 c_11 seg_2 c_2 c_4 c_6 c_7 c_9 c_11 seg_3 c_2 c_4 c_6 c_7 c_9 c_11 seg_4 c_2 c_4 c_6 c_7 c_9 c_11 seg_5 c_2 c_4 c_6 c_7 c_9 c_11 seg_6 c_2 c_4 c_6 c_7 c_9 c_11 seg_7 c_2 c_4 c_6 c_7 c_9 c_11 seg_0 c_2 c_4 c_6 c_7 c_9 c_11 seg_1 c_2 c_4 c_6 c_7 c_9 c_11 seg_2 c_2 c_4 c_6 c_7 c_9 c_11 seg_3 c_2 c_4 c_6 c_7 c_9 c_11 seg_4 c_2 c_4 c_6 c_7 c_9 c_11 seg_5 c_2 c_4 c_6 c_7 c_9 c_11 seg_6 c_2 c_4 c_6 c_7 c_9 c_11 seg_7 c_2 c_4 c_6 c_7 c_9 c_11 seg_",
        "0 c_2 c_4 c_6 c_7 c_9 c_11 seg_1 c_2 c_4 c_6 c_7 c_9 c_11 seg_2 c_2 c_4 c_6 c_7 c_9 c_11 seg_3 c_2 c_4 c_6 c_7 c_9 c_11 seg_4 c_2 c_4 c_6 c_7 c_9 c_11 seg_5 c_2 c_4 c_6 c_7 c_9 c_11 seg_6 c_2 c_4 c_6 c_7 c_9 c_11 seg_7 c_2 c_4 c_6 c_7 c_9 c_11 seg_0 c_2 c_4 c_6 c_7 c_9 c_11 seg_1 c_2 c_4 c_6 c_7 c_9 c_11 seg_2 c_2 c_4 c_6 c_7 c_9 c_11 seg_3 c_2 c_4 c_6 c_7 c_9 c_11 seg_4 c_2 c_4 c_6 c_7 c_9 c_11 seg_5 c_2 c_4 c_6 c_7 c_9 c_11 seg_6 c_2 c_4 c_6 c_7 c_9 c_11 seg_7 c_2 c_4 c_6 c_7 c_9 c_11 seg_"
      ],
      [
        "7 c_0 c_2 c_4 c_6 c_7 c_9 c_11 seg_0 c_0 c_2 c_4 c_6 c_7 c_9 c_11 seg_1 c_0 c_2 c_4 c_6 c_7 c_9 c_11 seg_2 c_0 c_2 c_4 c_6 c_7 c_9 c_11 seg_3 c_0 c_2 c_4 c_6 c_7 c_9 c_11 seg_4 c_0 c_2 c_4 c_6 c_7 c_9 c_11 seg_5 c_0 c_2 c_4 c_6 c_7 c_9 c_11 seg_6 c_0 c_2 c_4 c_6 c_7 c_9 c_11 seg_",
        "7 c_0 c_2 c_4 c_6 c_7 c_9 c_11 seg_0 c_0 c_2 c_4 c_6 c_7 c_9 c_11 seg_1 c_0 c_2 c_4 c_6 c_7 c_9 c_11 seg_2 c_0 c_2 c_4 c_6 c_7 c_9 c_11 seg_3 c_0 c_2 c_4 c_6 c_7 c_9 c_11 seg_4 c_0 c_2 c_4 c_6 c_7 c_9 c_11 seg_5 c_0 c_2 c_4 c_6 c_7 c_9 c_11 seg_6 c_0 c_2 c_4 c_6 c_7 c_9 c_11 seg_"
      ],
      [
        "1 c_1 c_3 c_5 c_6 c_8 c_10 c_11 seg_2 c_1 c_3 c_5 c_6 c_8 c_10 c_11 seg_",
        "3 c_1 c_3 c_5 c_6 c_8 c_10 c_11 seg_4 c_1 c_3 c_5 c_6 c_8 c_10 c_11 seg_"
      ],
      [
        "5 c_1 c_3 c_5 c_6 c_8 c_10 c_11 seg_6 c_1 c_3 c_5 c_6 c_8 c_10 c_11 seg_",
        "7 c_1 c_3 c_5 c_6 c_8 c_10 c_11 seg_0 c_1 c_3 c_5 c_6 c_8 c_10 c_11 seg_"
      ],
      [
        "9 c_10 seg_",
        "0 c_"
      ],
      [
        "5 c_6 c_",
        "8 c_9 seg_"
      ],
      [
        "4 c_0 c_1 c_3 c_5 c_7 c_8 c_10 seg_5 c_0 c_1 c_3 c_5 c_7 c_8 c_10 seg_6 c_0 c_1 c_3 c_5 c_7 c_8 c_10 seg_",
        "7 c_0 c_1 c_3 c_5 c_7 c_8 c_10 seg_0 c_0 c_1 c_3 c_5 c_7 c_8 c_10 seg_1 c_0 c_1 c_3 c_5 c_7 c_8 c_10 seg_2 c_0 c_1 c_3 c_5 c_7 c_8 c_10 seg_3 c_0 c_1 c_3 c_5 c_7 c_8 c_10 seg_"
      ],
      [
        "2 c_0 c_1 c_2 c_3 c_4 c_5 c_6 c_7 c_8 c_9 c_10 c_11 seg_3 c_0 c_1 c_2 c_3 c_4 c_5 c_6 c_7 c_8 c_9 c_10 c_11 seg_4 c_0 c_1 c_2 c_3 c_4 c_5 c_6 c_7 c_8 c_9 c_10 c_11 seg_5 c_0 c_1 c_2 c_3 c_4 c_5 c_6 c_7 c_8 c_9 c_10 c_11 seg_6 c_0 c_1 c_2 c_3 c_4 c_5 c_6 c_7 c_8 c_9 c_10 c_11 seg_7 c_0 c_1 c_2 c_3 c_4 c_5 c_6 c_7 c_8 c_9 c_10 c_11 seg_",
        "0 c_0 c_1 c_2 c_3 c_4 c_5 c_6 c_7 c_8 c_9 c_10 c_11 seg_"
      ],
      [
        "0 c_1 c_3 c_4 c_6 c_8 c_10 c_11 seg_1 c_1 c_3 c_4 c_6 c_8 c_10 c_11 seg_",
        "2 c_1 c_3 c_4 c_6 c_8 c_10 c_11 seg_3 c_1 c_3 c_4 c_6 c_8 c_10 c_11 seg_"
      ],
      [
        "4 c_1 c_3 c_4 c_6 c_8 c_10 c_11 seg_5 c_1 c_3 c_4 c_6 c_8 c_10 c_11 seg_",
        "6 c_1 c_3 c_4 c_6 c_8 c_10 c_11 seg_7 c_1 c_3 c_4 c_6 c_8 c_10 c_11 seg_"
      ],
      [
        "2 c_0 c_1 c_3 c_5 c_6 c_8 c_10 seg_3 c_0 c_1 c_3 c_5 c_6 c_8 c_10 seg_4 c_0 c_1 c_3 c_5 c_6 c_8 c_10 seg_5 c_0 c_1 c_3 c_5 c_6 c_8 c_10 seg_",
        "6 c_0 c_1 c_3 c_5 c_6 c_8 c_10 seg_7 c_0 c_1 c_3 c_5 c_6 c_8 c_10 seg_0 c_0 c_1 c_3 c_5 c_6 c_8 c_10 seg_1 c_0 c_1 c_3 c_5 c_6 c_8 c_10 seg_"
      ],
      [
        "7 c_9 seg_",
        "1"
      ],
      [
        "0 c_",
        "3 c_5 c_6 c_"
      ],
      [
        "2 c_0 c_1 c_2 c_3 c_4 c_5 c_6 c_7 c_8 c_9 c_10 c_11 seg_3 c_0 c_1 c_2 c_3 c_4 c_5 c_6 c_7 c_8 c_9 c_10 c_11 seg_4 c_0 c_1 c_2 c_3 c_4 c_5 c_6 c_7 c_8 c_9 c_10 c_11 seg_5 c_0 c_1 c_2 c_3 c_4 c_5 c_6 c_7 c_8 c_9 c_10 c_11 seg_6 c_0 c_1 c_2 c_3 c_4 c_5 c_6 c_7 c_8 c_9 c_10 c_11 seg_7 c_0 c_1 c_2 c_3 c_4 c_5 c_6 c_7 c_8 c_9 c_10 c_11 seg_0 c_0 c_1 c_2 c_3 c_4 c_5 c_6 c_7 c_8 c_9 c_10 c_11 seg_",
        "1 c_"
      ],
      [
        "2 c_",
        "4 c_6 c_8 c_9 c_11 seg_"
      ],
      [
        "5 c_1 c_2 c_4 c_6 c_8 c_9 c_11 seg_6 c_1 c_2 c_4 c_6 c_8 c_9 c_11 seg_7 c_1 c_2 c_4 c_6 c_8 c_9 c_11 seg_0 c_1 c_2 c_4 c_6 c_8 c_9 c_11 seg_1",
        " c_1 c_2 c_4 c_6 c_8 c_9 c_11 seg_2 c_1 c_2 c_4 c_6 c_8 c_9 c_11 seg_3 c_1 c_2 c_4 c_6 c_8 c_9 c_11 seg_4 c_1 c_2 c_4 c_6 c_8 c_9 c_11 seg_"
      ],
      [
        "5 c_6 c_",
        "8 c_9 c_11 seg_"
      ],
      [
        "1 c_1 c_3 c_5 c_6 c_8 c_10 c_11 seg_2 c_1 c_3 c_5 c_6 c_8 c_10 c_11 seg_3 c_1 c_3 c_5 c_6 c_8 c_10 c_11 seg_4 c_1 c_3 c_5 c_6 c_8 c_10 c_11 seg_",
        "5 c_1 c_3 c_5 c_6 c_8 c_10 c_11 seg_6 c_1 c_3 c_5 c_6 c_8 c_10 c_11 seg_7 c_1 c_3 c_5 c_6 c_8 c_10 c_11 seg_0 c_1 c_3 c_5 c_6 c_8 c_10 c_11 seg_"
      ],
      [
        "5 c_0 c_3 c_5 c_7 c_8 c_10 seg_6 c_0 c_3 c_5 c_7 c_8 c_10 seg_7 c_0 c_3 c_5 c_7 c_8 c_10 seg_0 c_0 c_3 c_5 c_7 c_8 c_10 seg_1 c_0 c_3 c_5 c_7 c_8 c_10 seg_2 c_0 c_3 c_5 c_7 c_8 c_10 seg_3 c_0 c_3 c_5 c_7 c_8 c_10 seg_4 c_0 c_3 c_5 c_7 c_8 c_10 seg_5 c_0 c_3 c_5 c_7 c_8 c_10 seg_6 c_0 c_3 c_5 c_7 c_8 c_10 seg_7 c_0 c_3 c_5 c_7 c_8 c_10 seg_0 c_0 c_3 c_5 c_7 c_8 c_10 seg_1 c_0 c_3 c_5 c_7 c_8 c_10 seg_2 c_0 c_3 c_5 c_7 c_8 c_10 seg_3 c_0 c_3 c_5 c_7 c_8 c_10 seg_4 c_0 c_3 c_5 c_7 c_8 c_10 seg_",
        "5 c_0 c_3 c_5 c_7 c_8 c_10 seg_6 c_0 c_3 c_5 c_7 c_8 c_10 seg_7 c_0 c_3 c_5 c_7 c_8 c_10 seg_0 c_0 c_3 c_5 c_7 c_8 c_10 seg_1 c_0 c_3 c_5 c_7 c_8 c_10 seg_2 c_0 c_3 c_5 c_7 c_8 c_10 seg_3 c_0 c_3 c_5 c_7 c_8 c_10 seg_4 c_0 c_3 c_5 c_7 c_8 c_10 seg_5 c_0 c_3 c_5 c_7 c_8 c_10 seg_6 c_0 c_3 c_5 c_7 c_8 c_10 seg_7 c_0 c_3 c_5 c_7 c_8 c_10 seg_0 c_0 c_3 c_5 c_7 c_8 c_10 seg_1 c_0 c_3 c_5 c_7 c_8 c_10 seg_2 c_0 c_3 c_5 c_7 c_8 c_10 seg_3 c_0 c_3 c_5 c_7 c_8 c_10 seg_4 c_0 c_3 c_5 c_7 c_8 c_10 seg_"
      ],
      [
        "4 c_1 c_3 c_4 c_6 c_8 c_10 c_11 seg_5 c_1 c_3 c_4 c_6 c_8 c_10 c_11 seg_6 c_1 c_3 c_4 c_6 c_8 c_10 c_11 seg_7 c_1 c_3 c_4 c_6 c_8 c_10 c_11 seg_",
        "0 c_1 c_3 c_4 c_6 c_8 c_10 c_11 seg_1 c_1 c_3 c_4 c_6 c_8 c_10 c_11 seg_2 c_1 c_3 c_4 c_6 c_8 c_10 c_11 seg_3 c_1 c_3 c_4 c_6 c_8 c_10 c_11 seg_"
      ],
      [
        "0 c_",
        "4 c_6 c_7 c_11 seg_"
      ],
      [
        "0 c_2 c_",
        "4 c_6 c_9 c_11 seg_"
      ],
      [
        "0 c_2 c_6 c_7 c_9 c_11 seg_",
        "1 c_"
      ],
      [
        "0 c_1 c_",
        "5 c_10 seg_"
      ],
      [
        "2 c_0 c_1 c_2 c_3 c_4 c_5 c_6 c_7 c_8 c_9 c_10 c_11 seg_3 c_0 c_1 c_2 c_3 c_4 c_5 c_6 c_7 c_8 c_9 c_10 c_11 seg_4 c_0 c_1 c_2 c_3 c_4 c_5 c_6 c_7 c_8 c_9 c_10 c_11 seg_5 c_0 c_1 c_2 c_3 c_4 c_5 c_6 c_7 c_8 c_9 c_10 c_11 seg_6 c_0 c_1 c_2 c_3 c_4 c_5 c_6 c_7 c_8 c_9 c_10 c_11 seg_7 c_0 c_1 c_2 c_3 c_4 c_5 c_6 c_7 c_8 c_9 c_10 c_11 seg_0 c_0 c_1 c_2 c_3 c_4 c_5 c_6 c_7 c_8 c_9 c_10 c_11 seg_1 c_",
        "0 c_1 c_2 c_3 c_4 c_5 c_6 c_7 c_8 c_9 c_10 c_11 seg_"
      ],
      [
        "2 c_0 c_1 c_3 c_5 c_6 c_8 c_10 seg_3 c_0 c_1 c_3 c_5 c_6 c_8 c_10 seg_4 c_0 c_1 c_3 c_5 c_6 c_8 c_10 seg_5 c_0 c_1 c_3 c_5 c_6 c_8 c_10 seg_6 c_0 c_1 c_3 c_5 c_6 c_8 c_10 seg_7 c_0 c_1 c_3 c_5 c_6 c_8 c_10 seg_0 c_0 c_1 c_3 c_5 c_6 c_8 c_10 seg_1 c_0 c_1 c_3 c_5 c_6 c_8 c_10 seg_",
        "2 c_0 c_1 c_3 c_5 c_6 c_8 c_10 seg_3 c_0 c_1 c_3 c_5 c_6 c_8 c_10 seg_4 c_0 c_1 c_3 c_5 c_6 c_8 c_10 seg_5 c_0 c_1 c_3 c_5 c_6 c_8 c_10 seg_6 c_0 c_1 c_3 c_5 c_6 c_8 c_10 seg_7 c_0 c_1 c_3 c_5 c_6 c_8 c_10 seg_0 c_0 c_1 c_3 c_5 c_6 c_8 c_10 seg_1 c_0 c_1 c_3 c_5 c_6 c_8 c_10 seg_"
      ],
      [
        "0 c_4 c_5 c_",
        "7 c_8 c_10 seg_"
      ],
      [
        "8 c_10 seg_",
        "5 c_"
      ],
      [
        "4 c_0 c_1 c_3 c_5 c_7 c_8 c_10 seg_5 c_0 c_1 c_3 c_5 c_7 c_8 c_10 seg_6 c_0 c_1 c_3 c_5 c_7 c_8 c_10 seg_7 c_0 c_1 c_3 c_5 c_7 c_8 c_10 seg_0 c_0 c_1 c_3 c_5 c_7 c_8 c_10 seg_1 c_0 c_1 c_3 c_5 c_7 c_8 c_10 seg_2 c_0 c_1 c_3 c_5 c_7 c_8 c_10 seg_3 c_0 c_1 c_3 c_5 c_7 c_8 c_10 seg_",
        "4 c_0 c_1 c_3 c_5 c_7 c_8 c_10 seg_5 c_0 c_1 c_3 c_5 c_7 c_8 c_10 seg_6 c_0 c_1 c_3 c_5 c_7 c_8 c_10 seg_7 c_0 c_1 c_3 c_5 c_7 c_8 c_10 seg_0 c_0 c_1 c_3 c_5 c_7 c_8 c_10 seg_1 c_0 c_1 c_3 c_5 c_7 c_8 c_10 seg_2 c_0 c_1 c_3 c_5 c_7 c_8 c_10 seg_3 c_0 c_1 c_3 c_5 c_7 c_8 c_10 seg_"
      ],
      [
        "8 c_10 seg_",
        "1 c_"
      ],
      [
        "8 c_10 seg_",
        "7 c_"
      ],
      [
        "8 c_10 seg_",
        "6 c_"
      ],
      [
        "8 c_10 seg_",
        "2 c_"
      ],
      [
        "8 c_10 seg_",
        "4 c_"
      ],
      [
        "0 c_2 c_4 c_5 c_7 c_9 seg_4 c_0 c_2 c_4 c_5 c_7 c_9 seg_5 c_0 c_2 c_4 c_5 c_7 c_9 seg_6 c_0 c_2 c_4 c_5 c_7 c_9 seg_7 c_0 c_2 c_4 c_5 c_7 c_9 seg_0 c_0 c_2 c_4 c_5 c_7 c_9 seg_1 c_0 c_2 c_4 c_5 c_7 c_9 seg_2 c_0 c_2 c_4 c_5 c_7 c_9 seg_3 c_0 c_2 c_4 c_5 c_7 c_9 seg_4 c_0 c_2 c_4 c_5 c_7 c_9 seg_5 c_0 c_2 c_4 c_5 c_7 c_9 seg_6 c_0 c_2 c_4 c_5 c_7 c_9 seg_7 c_0 c_2 c_4 c_5 c_7 c_9 seg_0 c_0 c_2 c_4 c_5 c_7 c_9 seg_1 c_0 c_2 c_4 c_5 c_7 c_9 seg_2 c_0 c_2 c_4 c_5 c_7 c_9 seg_3 c_",
        "0 c_2 c_4 c_5 c_7 c_9 seg_4 c_0 c_2 c_4 c_5 c_7 c_9 seg_5 c_0 c_2 c_4 c_5 c_7 c_9 seg_6 c_0 c_2 c_4 c_5 c_7 c_9 seg_7 c_0 c_2 c_4 c_5 c_7 c_9 seg_0 c_0 c_2 c_4 c_5 c_7 c_9 seg_1 c_0 c_2 c_4 c_5 c_7 c_9 seg_2 c_0 c_2 c_4 c_5 c_7 c_9 seg_3 c_0 c_2 c_4 c_5 c_7 c_9 seg_4 c_0 c_2 c_4 c_5 c_7 c_9 seg_5 c_0 c_2 c_4 c_5 c_7 c_9 seg_6 c_0 c_2 c_4 c_5 c_7 c_9 seg_7 c_0 c_2 c_4 c_5 c_7 c_9 seg_0 c_0 c_2 c_4 c_5 c_7 c_9 seg_1 c_0 c_2 c_4 c_5 c_7 c_9 seg_2 c_0 c_2 c_4 c_5 c_7 c_9 seg_3 c_"
      ],
      [
        "2 c_",
        "3 c_5 c_6 c_8 c_10 seg_"
      ],
      [
        "4 c_",
        "8 c_9 seg_"
      ],
      [
        "5 c_1 c_2 c_4 c_6 c_8 c_9 c_11 seg_6 c_1 c_2 c_4 c_6 c_8 c_9 c_11 seg_7 c_1 c_2 c_4 c_6 c_8 c_9 c_11 seg_0 c_1 c_2 c_4 c_6 c_8 c_9 c_11 seg_1 c_1 c_2 c_4 c_6 c_8 c_9 c_11 seg_2 c_1 c_2 c_4 c_6 c_8 c_9 c_11 seg_3 c_1 c_2 c_4 c_6 c_8 c_9 c_11 seg_4 c_1 c_2 c_4 c_6 c_8 c_9 c_11 seg_",
        "5 c_1 c_2 c_4 c_6 c_8 c_9 c_11 seg_6 c_1 c_2 c_4 c_6 c_8 c_9 c_11 seg_7 c_1 c_2 c_4 c_6 c_8 c_9 c_11 seg_0 c_1 c_2 c_4 c_6 c_8 c_9 c_11 seg_1 c_1 c_2 c_4 c_6 c_8 c_9 c_11 seg_2 c_1 c_2 c_4 c_6 c_8 c_9 c_11 seg_3 c_1 c_2 c_4 c_6 c_8 c_9 c_11 seg_4 c_1 c_2 c_4 c_6 c_8 c_9 c_11 seg_"
      ],
      [
        "1 c_1 c_3 c_5 c_6 c_8 c_10 c_11 seg_2 c_1 c_3 c_5 c_6 c_8 c_10 c_11 seg_3 c_1 c_3 c_5 c_6 c_8 c_10 c_11 seg_4 c_1 c_3 c_5 c_6 c_8 c_10 c_11 seg_5 c_1 c_3 c_5 c_6 c_8 c_10 c_11 seg_6 c_1 c_3 c_5 c_6 c_8 c_10 c_11 seg_7 c_1 c_3 c_5 c_6 c_8 c_10 c_11 seg_0 c_1 c_3 c_5 c_6 c_8 c_10 c_11 seg_",
        "1 c_1 c_3 c_5 c_6 c_8 c_10 c_11 seg_2 c_1 c_3 c_5 c_6 c_8 c_10 c_11 seg_3 c_1 c_3 c_5 c_6 c_8 c_10 c_11 seg_4 c_1 c_3 c_5 c_6 c_8 c_10 c_11 seg_5 c_1 c_3 c_5 c_6 c_8 c_10 c_11 seg_6 c_1 c_3 c_5 c_6 c_8 c_10 c_11 seg_7 c_1 c_3 c_5 c_6 c_8 c_10 c_11 seg_0 c_1 c_3 c_5 c_6 c_8 c_10 c_11 seg_"
      ],
      [
        "5 c_6 c_",
        "8 c_11 seg_"
      ],
      [
        "4 c_6 c_",
        "8 seg_"
      ],
      [
        "0 c_3 c_",
        "5 c_10 seg_"
      ],
      [
        "0 c_1 c_",
        "4 c_5 c_6 c_"
      ],
      [
        "8 c_9 seg_",
        "3 c_"
      ],
      [
        "4 c_1 c_3 c_4 c_6 c_8 c_10 c_11 seg_5 c_1 c_3 c_4 c_6 c_8 c_10 c_11 seg_6 c_1 c_3 c_4 c_6 c_8 c_10 c_11 seg_7 c_1 c_3 c_4 c_6 c_8 c_10 c_11 seg_0 c_1 c_3 c_4 c_6 c_8 c_10 c_11 seg_1 c_1 c_3 c_4 c_6 c_8 c_10 c_11 seg_2 c_1 c_3 c_4 c_6 c_8 c_10 c_11 seg_3 c_1 c_3 c_4 c_6 c_8 c_10 c_11 seg_",
        "4 c_1 c_3 c_4 c_6 c_8 c_10 c_11 seg_5 c_1 c_3 c_4 c_6 c_8 c_10 c_11 seg_6 c_1 c_3 c_4 c_6 c_8 c_10 c_11 seg_7 c_1 c_3 c_4 c_6 c_8 c_10 c_11 seg_0 c_1 c_3 c_4 c_6 c_8 c_10 c_11 seg_1 c_1 c_3 c_4 c_6 c_8 c_10 c_11 seg_2 c_1 c_3 c_4 c_6 c_8 c_10 c_11 seg_3 c_1 c_3 c_4 c_6 c_8 c_10 c_11 seg_"
      ],
      [
        "9 seg_",
        "0 c_"
      ],
      [
        "6 c_10 c_11 seg_",
        "1"
      ],
      [
        "0 c_1 c_5 c_6 c_",
        "8 seg_"
      ],
      [
        "0 c_1 c_2 c_4 c_6 c_9 c_11 seg_1 c_1 c_2 c_4 c_6 c_9 c_11 seg_2 c_1 c_2 c_4 c_6 c_9 c_11 seg_3 c_1 c_2 c_4 c_6 c_9 c_11 seg_4 c_1 c_2 c_4 c_6 c_9 c_11 seg_5 c_1 c_2 c_4 c_6 c_9 c_11 seg_6 c_1 c_2 c_4 c_6 c_9 c_11 seg_7 c_1 c_2 c_4 c_6 c_9 c_11 seg_0 c_1 c_2 c_4 c_6 c_9 c_11 seg_1 c_1 c_2 c_4 c_6 c_9 c_11 seg_2 c_1 c_2 c_4 c_6 c_9 c_11 seg_3 c_1 c_2 c_4 c_6 c_9 c_11 seg_4 c_1 c_2 c_4 c_6 c_9 c_11 seg_5 c_1 c_2 c_4 c_6 c_9 c_11 seg_6 c_1 c_2 c_4 c_6 c_9 c_11 seg_7 c_1 c_2 c_4 c_6 c_9 c_11 seg_",
        "0 c_1 c_2 c_4 c_6 c_9 c_11 seg_1 c_1 c_2 c_4 c_6 c_9 c_11 seg_2 c_1 c_2 c_4 c_6 c_9 c_11 seg_3 c_1 c_2 c_4 c_6 c_9 c_11 seg_4 c_1 c_2 c_4 c_6 c_9 c_11 seg_5 c_1 c_2 c_4 c_6 c_9 c_11 seg_6 c_1 c_2 c_4 c_6 c_9 c_11 seg_7 c_1 c_2 c_4 c_6 c_9 c_11 seg_0 c_1 c_2 c_4 c_6 c_9 c_11 seg_1 c_1 c_2 c_4 c_6 c_9 c_11 seg_2 c_1 c_2 c_4 c_6 c_9 c_11 seg_3 c_1 c_2 c_4 c_6 c_9 c_11 seg_4 c_1 c_2 c_4 c_6 c_9 c_11 seg_5 c_1 c_2 c_4 c_6 c_9 c_11 seg_6 c_1 c_2 c_4 c_6 c_9 c_11 seg_7 c_1 c_2 c_4 c_6 c_9 c_11 seg_"
      ],
      [
        "4 c_",
        "6 c_10 c_11 seg_"
      ],
      [
        " c_1 c_2 c_4 c_5 c_",
        "7 c_9 seg_"
      ],
      [
        "8 c_9 seg_",
        "5 c_"
      ],
      [
        "0 c_0 c_2 c_5 c_7 c_9 c_10 seg_1 c_0 c_2 c_5 c_7 c_9 c_10 seg_2 c_0 c_2 c_5 c_7 c_9 c_10 seg_3 c_0 c_2 c_5 c_7 c_9 c_10 seg_4 c_0 c_2 c_5 c_7 c_9 c_10 seg_5 c_0 c_2 c_5 c_7 c_9 c_10 seg_6 c_0 c_2 c_5 c_7 c_9 c_10 seg_7 c_0 c_2 c_5 c_7 c_9 c_10 seg_0 c_0 c_2 c_5 c_7 c_9 c_10 seg_1 c_0 c_2 c_5 c_7 c_9 c_10 seg_2 c_0 c_2 c_5 c_7 c_9 c_10 seg_3 c_0 c_2 c_5 c_7 c_9 c_10 seg_4 c_0 c_2 c_5 c_7 c_9 c_10 seg_5 c_0 c_2 c_5 c_7 c_9 c_10 seg_6 c_0 c_2 c_5 c_7 c_9 c_10 seg_7 c_0 c_2 c_5 c_7 c_9 c_10 seg_",
        "0 c_0 c_2 c_5 c_7 c_9 c_10 seg_1 c_0 c_2 c_5 c_7 c_9 c_10 seg_2 c_0 c_2 c_5 c_7 c_9 c_10 seg_3 c_0 c_2 c_5 c_7 c_9 c_10 seg_4 c_0 c_2 c_5 c_7 c_9 c_10 seg_5 c_0 c_2 c_5 c_7 c_9 c_10 seg_6 c_0 c_2 c_5 c_7 c_9 c_10 seg_7 c_0 c_2 c_5 c_7 c_9 c_10 seg_0 c_0 c_2 c_5 c_7 c_9 c_10 seg_1 c_0 c_2 c_5 c_7 c_9 c_10 seg_2 c_0 c_2 c_5 c_7 c_9 c_10 seg_3 c_0 c_2 c_5 c_7 c_9 c_10 seg_4 c_0 c_2 c_5 c_7 c_9 c_10 seg_5 c_0 c_2 c_5 c_7 c_9 c_10 seg_6 c_0 c_2 c_5 c_7 c_9 c_10 seg_7 c_0 c_2 c_5 c_7 c_9 c_10 seg_"
      ],
      [
        "8 c_9 seg_",
        "6 c_"
      ],
      [
        "8 c_9 seg_",
        "1 c_"
      ],
      [
        "8 c_9 seg_",
        "7 c_"
      ],
      [
        "8 c_9 seg_",
        "4 c_"
      ],
      [
        "8 c_9 seg_",
        "2 c_"
      ],
      [
        "0 c_2 c_",
        "5 c_10 seg_"
      ],
      [
        "2 c_3 c_5 c_7 c_8 c_10 seg_",
        "3 c_"
      ],
      [
        "7 c_10 seg_",
        "0 c_"
      ],
      [
        "0 c_2 c_4 c_7 c_9 seg_",
        "1 c_"
      ],
      [
        "6 c_",
        "9 c_11 seg_"
      ],
      [
        "0 c_0 c_2 c_3 c_5 c_7 c_10 seg_1 c_0 c_2 c_3 c_5 c_7 c_10 seg_2 c_0 c_2 c_3 c_5 c_7 c_10 seg_3 c_0 c_2 c_3 c_5 c_7 c_10 seg_4 c_0 c_2 c_3 c_5 c_7 c_10 seg_5 c_0 c_2 c_3 c_5 c_7 c_10 seg_6 c_0 c_2 c_3 c_5 c_7 c_10 seg_7 c_0 c_2 c_3 c_5 c_7 c_10 seg_0 c_0 c_2 c_3 c_5 c_7 c_10 seg_1 c_0 c_2 c_3 c_5 c_7 c_10 seg_2 c_0 c_2 c_3 c_5 c_7 c_10 seg_3 c_0 c_2 c_3 c_5 c_7 c_10 seg_4 c_0 c_2 c_3 c_5 c_7 c_10 seg_5 c_0 c_2 c_3 c_5 c_7 c_10 seg_6 c_0 c_2 c_3 c_5 c_7 c_10 seg_7 c_0 c_2 c_3 c_5 c_7 c_10 seg_",
        "0 c_0 c_2 c_3 c_5 c_7 c_10 seg_1 c_0 c_2 c_3 c_5 c_7 c_10 seg_2 c_0 c_2 c_3 c_5 c_7 c_10 seg_3 c_0 c_2 c_3 c_5 c_7 c_10 seg_4 c_0 c_2 c_3 c_5 c_7 c_10 seg_5 c_0 c_2 c_3 c_5 c_7 c_10 seg_6 c_0 c_2 c_3 c_5 c_7 c_10 seg_7 c_0 c_2 c_3 c_5 c_7 c_10 seg_0 c_0 c_2 c_3 c_5 c_7 c_10 seg_1 c_0 c_2 c_3 c_5 c_7 c_10 seg_2 c_0 c_2 c_3 c_5 c_7 c_10 seg_3 c_0 c_2 c_3 c_5 c_7 c_10 seg_4 c_0 c_2 c_3 c_5 c_7 c_10 seg_5 c_0 c_2 c_3 c_5 c_7 c_10 seg_6 c_0 c_2 c_3 c_5 c_7 c_10 seg_7 c_0 c_2 c_3 c_5 c_7 c_10 seg_"
      ],
      [
        " c_1 c_2 c_",
        "6 c_11 seg_"
      ],
      [
        "0 c_1 c_3 c_",
        "4 c_6 c_8 c_9 seg_"
      ],
      [
        "4 c_6 c_",
        "9 seg_"
      ],
      [
        "9 c_11 seg_",
        "1"
      ],
      [
        " c_1 c_3 c_4 c_",
        "8 seg_"
      ],
      [
        "7 c_8 c_11 seg_",
        "1 c_"
      ],
      [
        "7 c_8 c_11 seg_",
        "6 c_"
      ],
      [
        "7 c_8 c_11 seg_",
        "7 c_"
      ],
      [
        "7 c_8 c_11 seg_",
        "5 c_"
      ],
      [
        "7 c_8 c_11 seg_",
        "3 c_"
      ],
      [
        "7 c_8 c_11 seg_",
        "4 c_"
      ],
      [
        "2 c_",
        "4 c_5 c_6 c_"
      ],
      [
        "0 c_3 c_",
        "4 c_6 c_7 c_9 c_11 seg_"
      ],
      [
        "2 c_3 c_",
        "7 c_8 c_10 seg_"
      ],
      [
        "3 c_5 c_",
        "8 c_10 c_11 seg_"
      ],
      [
        "5",
        " c_10 c_11 seg_"
      ],
      [
        "0 c_1 c_5 c_",
        "8 seg_"
      ],
      [
        "0 c_4 c_5 c_",
        "9 c_11 seg_"
      ],
      [
        "7 c_8 c_11 seg_",
        "2 c_"
      ],
      [
        "6 c_8 c_10 c_11 seg_",
        "1 c_1 c_"
      ],
      [
        "0 c_4 c_6 c_7 c_9 c_11 seg_",
        "1 c_"
      ],
      [
        " c_1 c_2 c_4 c_",
        "7 c_9 c_11 seg_"
      ],
      [
        "8 c_9 seg_",
        "0 c_"
      ],
      [
        "7 c_9 c_11 seg_",
        "7 c_"
      ],
      [
        "7 c_9 c_11 seg_",
        "6 c_"
      ],
      [
        "3 c_5 c_",
        "8 seg_"
      ],
      [
        "0 c_1 c_4 c_5 c_",
        "7 c_8 c_10 seg_"
      ],
      [
        "7 c_9 c_11 seg_",
        "5 c_"
      ],
      [
        "7 seg_",
        "6 c_"
      ],
      [
        "7 c_9 c_11 seg_",
        "4 c_"
      ],
      [
        "7 seg_",
        "7 c_"
      ],
      [
        "7 seg_",
        "5 c_"
      ],
      [
        "7 seg_",
        "4 c_"
      ],
      [
        "7 seg_",
        "3 c_"
      ],
      [
        "0 c_2 c_4 c_7 c_11 seg_",
        "1 c_"
      ],
      [
        "7",
        " c_1 c_2 c_3 c_"
      ],
      [
        "5",
        " c_1 c_2 c_3 c_"
      ],
      [
        "6",
        " c_1 c_2 c_3 c_"
      ],
      [
        "3",
        " c_1 c_2 c_3 c_"
      ],
      [
        "2",
        " c_1 c_2 c_3 c_"
      ],
      [
        "0 c_1 c_",
        "4 c_8 c_9 c_11 seg_"
      ],
      [
        "4",
        " c_1 c_2 c_3 c_"
      ],
      [
        "0 c_1 c_3 c_5 c_6 c_8 c_10 seg_1 c_1 c_3 c_5 c_6 c_8 c_10 seg_2 c_1 c_3 c_5 c_6 c_8 c_10 seg_3 c_1 c_3 c_5 c_6 c_8 c_10 seg_4 c_1 c_3 c_5 c_6 c_8 c_10 seg_5 c_1 c_3 c_5 c_6 c_8 c_10 seg_6 c_1 c_3 c_5 c_6 c_8 c_10 seg_7 c_1 c_3 c_5 c_6 c_8 c_10 seg_0 c_1 c_3 c_5 c_6 c_8 c_10 seg_1 c_1 c_3 c_5 c_6 c_8 c_10 seg_2 c_1 c_3 c_5 c_6 c_8 c_10 seg_3 c_1 c_3 c_5 c_6 c_8 c_10 seg_4 c_1 c_3 c_5 c_6 c_8 c_10 seg_5 c_1 c_3 c_5 c_6 c_8 c_10 seg_6 c_1 c_3 c_5 c_6 c_8 c_10 seg_7 c_1 c_3 c_5 c_6 c_8 c_10 seg_",
        "0 c_1 c_3 c_5 c_6 c_8 c_10 seg_1 c_1 c_3 c_5 c_6 c_8 c_10 seg_2 c_1 c_3 c_5 c_6 c_8 c_10 seg_3 c_1 c_3 c_5 c_6 c_8 c_10 seg_4 c_1 c_3 c_5 c_6 c_8 c_10 seg_5 c_1 c_3 c_5 c_6 c_8 c_10 seg_6 c_1 c_3 c_5 c_6 c_8 c_10 seg_7 c_1 c_3 c_5 c_6 c_8 c_10 seg_0 c_1 c_3 c_5 c_6 c_8 c_10 seg_1 c_1 c_3 c_5 c_6 c_8 c_10 seg_2 c_1 c_3 c_5 c_6 c_8 c_10 seg_3 c_1 c_3 c_5 c_6 c_8 c_10 seg_4 c_1 c_3 c_5 c_6 c_8 c_10 seg_5 c_1 c_3 c_5 c_6 c_8 c_10 seg_6 c_1 c_3 c_5 c_6 c_8 c_10 seg_7 c_1 c_3 c_5 c_6 c_8 c_10 seg_"
      ],
      [
        "5 c_1 c_4 c_6 c_8 c_9 c_11 seg_6 c_1 c_4 c_6 c_8 c_9 c_11 seg_7 c_1 c_4 c_6 c_8 c_9 c_11 seg_0 c_1 c_4 c_6 c_8 c_9 c_11 seg_1 c_1 c_4 c_6 c_8 c_9 c_11 seg_2 c_1 c_4 c_6 c_8 c_9 c_11 seg_3 c_1 c_4 c_6 c_8 c_9 c_11 seg_4 c_1 c_4 c_6 c_8 c_9 c_11 seg_5 c_1 c_4 c_6 c_8 c_9 c_11 seg_6 c_1 c_4 c_6 c_8 c_9 c_11 seg_7 c_1 c_4 c_6 c_8 c_9 c_11 seg_0 c_1 c_4 c_6 c_8 c_9 c_11 seg_1 c_1 c_4 c_6 c_8 c_9 c_11 seg_2 c_1 c_4 c_6 c_8 c_9 c_11 seg_3 c_1 c_4 c_6 c_8 c_9 c_11 seg_4 c_1 c_4 c_6 c_8 c_9 c_11 seg_",
        "5 c_1 c_4 c_6 c_8 c_9 c_11 seg_6 c_1 c_4 c_6 c_8 c_9 c_11 seg_7 c_1 c_4 c_6 c_8 c_9 c_11 seg_0 c_1 c_4 c_6 c_8 c_9 c_11 seg_1 c_1 c_4 c_6 c_8 c_9 c_11 seg_2 c_1 c_4 c_6 c_8 c_9 c_11 seg_3 c_1 c_4 c_6 c_8 c_9 c_11 seg_4 c_1 c_4 c_6 c_8 c_9 c_11 seg_5 c_1 c_4 c_6 c_8 c_9 c_11 seg_6 c_1 c_4 c_6 c_8 c_9 c_11 seg_7 c_1 c_4 c_6 c_8 c_9 c_11 seg_0 c_1 c_4 c_6 c_8 c_9 c_11 seg_1 c_1 c_4 c_6 c_8 c_9 c_11 seg_2 c_1 c_4 c_6 c_8 c_9 c_11 seg_3 c_1 c_4 c_6 c_8 c_9 c_11 seg_4 c_1 c_4 c_6 c_8 c_9 c_11 seg_"
      ],
      [
        "8 c_10 seg_",
        "0 c_"
      ],
      [
        "7 seg_",
        "2 c_"
      ],
      [
        "3 c_0 c_1 c_3 c_5 c_8 c_10 seg_4 c_0 c_1 c_3 c_5 c_8 c_10 seg_5 c_0 c_1 c_3 c_5 c_8 c_10 seg_6 c_0 c_1 c_3 c_5 c_8 c_10 seg_7 c_0 c_1 c_3 c_5 c_8 c_10 seg_0 c_0 c_1 c_3 c_5 c_8 c_10 seg_1 c_0 c_1 c_3 c_5 c_8 c_10 seg_2 c_0 c_1 c_3 c_5 c_8 c_10 seg_3 c_0 c_1 c_3 c_5 c_8 c_10 seg_4 c_0 c_1 c_3 c_5 c_8 c_10 seg_5 c_0 c_1 c_3 c_5 c_8 c_10 seg_6 c_0 c_1 c_3 c_5 c_8 c_10 seg_7 c_0 c_1 c_3 c_5 c_8 c_10 seg_0 c_0 c_1 c_3 c_5 c_8 c_10 seg_1 c_0 c_1 c_3 c_5 c_8 c_10 seg_2 c_0 c_1 c_3 c_5 c_8 c_10 seg_",
        "3 c_0 c_1 c_3 c_5 c_8 c_10 seg_4 c_0 c_1 c_3 c_5 c_8 c_10 seg_5 c_0 c_1 c_3 c_5 c_8 c_10 seg_6 c_0 c_1 c_3 c_5 c_8 c_10 seg_7 c_0 c_1 c_3 c_5 c_8 c_10 seg_0 c_0 c_1 c_3 c_5 c_8 c_10 seg_1 c_0 c_1 c_3 c_5 c_8 c_10 seg_2 c_0 c_1 c_3 c_5 c_8 c_10 seg_3 c_0 c_1 c_3 c_5 c_8 c_10 seg_4 c_0 c_1 c_3 c_5 c_8 c_10 seg_5 c_0 c_1 c_3 c_5 c_8 c_10 seg_6 c_0 c_1 c_3 c_5 c_8 c_10 seg_7 c_0 c_1 c_3 c_5 c_8 c_10 seg_0 c_0 c_1 c_3 c_5 c_8 c_10 seg_1 c_0 c_1 c_3 c_5 c_8 c_10 seg_2 c_0 c_1 c_3 c_5 c_8 c_10 seg_"
      ],
      [
        "0 c_",
        "3 c_5 c_6 c_8 c_10 seg_"
      ],
      [
        " c_1 c_2 c_6 c_",
        "7 c_9 seg_"
      ],
      [
        "0 c_2 c_4 c_5 c_",
        "6 c_"
      ],
      [
        "0 c_3 c_5 c_",
        "6 c_10 seg_"
      ],
      [
        " c_1 c_2 c_",
        "6 c_10 c_11 seg_"
      ],
      [
        "7 c_10 c_11 seg_",
        "3 c_"
      ],
      [
        "2 c_4 c_6 c_9 c_11 seg_",
        "3 c_"
      ],
      [
        "7 c_10 c_11 seg_",
        "6 c_"
      ],
      [
        "7 c_10 c_11 seg_",
        "1 c_"
      ],
      [
        "7 c_10 c_11 seg_",
        "5 c_"
      ],
      [
        "5",
        " c_11 seg_"
      ],
      [
        "4 c_1 c_3 c_6 c_8 c_10 c_11 seg_5 c_1 c_3 c_6 c_8 c_10 c_11 seg_6 c_1 c_3 c_6 c_8 c_10 c_11 seg_7 c_1 c_3 c_6 c_8 c_10 c_11 seg_0 c_1 c_3 c_6 c_8 c_10 c_11 seg_1 c_1 c_3 c_6 c_8 c_10 c_11 seg_2 c_1 c_3 c_6 c_8 c_10 c_11 seg_3 c_1 c_3 c_6 c_8 c_10 c_11 seg_4 c_1 c_3 c_6 c_8 c_10 c_11 seg_5 c_1 c_3 c_6 c_8 c_10 c_11 seg_6 c_1 c_3 c_6 c_8 c_10 c_11 seg_7 c_1 c_3 c_6 c_8 c_10 c_11 seg_0 c_1 c_3 c_6 c_8 c_10 c_11 seg_1 c_1 c_3 c_6 c_8 c_10 c_11 seg_2 c_1 c_3 c_6 c_8 c_10 c_11 seg_3 c_1 c_3 c_6 c_8 c_10 c_11 seg_",
        "4 c_1 c_3 c_6 c_8 c_10 c_11 seg_5 c_1 c_3 c_6 c_8 c_10 c_11 seg_6 c_1 c_3 c_6 c_8 c_10 c_11 seg_7 c_1 c_3 c_6 c_8 c_10 c_11 seg_0 c_1 c_3 c_6 c_8 c_10 c_11 seg_1 c_1 c_3 c_6 c_8 c_10 c_11 seg_2 c_1 c_3 c_6 c_8 c_10 c_11 seg_3 c_1 c_3 c_6 c_8 c_10 c_11 seg_4 c_1 c_3 c_6 c_8 c_10 c_11 seg_5 c_1 c_3 c_6 c_8 c_10 c_11 seg_6 c_1 c_3 c_6 c_8 c_10 c_11 seg_7 c_1 c_3 c_6 c_8 c_10 c_11 seg_0 c_1 c_3 c_6 c_8 c_10 c_11 seg_1 c_1 c_3 c_6 c_8 c_10 c_11 seg_2 c_1 c_3 c_6 c_8 c_10 c_11 seg_3 c_1 c_3 c_6 c_8 c_10 c_11 seg_"
      ],
      [
        "7 c_10 c_11 seg_",
        "7 c_"
      ],
      [
        "7 c_10 c_11 seg_",
        "4 c_"
      ],
      [
        "2 c_",
        "3 c_5 c_6 c_8 c_10 c_11 seg_"
      ],
      [
        "0 c_4 c_5 c_",
        "6 c_"
      ],
      [
        "7 seg_",
        "1 c_"
      ],
      [
        "0 c_",
        "4 c_6 c_"
      ],
      [
        "8 seg_",
        "5 c_"
      ],
      [
        " c_1 c_2 c_4 c_5 c_",
        "9 seg_"
      ],
      [
        " c_1 c_2 c_6 c_",
        "9 seg_"
      ],
      [
        "7 c_9 c_11 seg_",
        "3 c_"
      ],
      [
        "8 seg_",
        "6 c_"
      ],
      [
        "0 c_2 c_4 c_7 c_9 seg_",
        "7 c_"
      ],
      [
        "0 c_3 c_",
        "4 c_6 c_8 c_9 c_11 seg_"
      ],
      [
        "8 seg_",
        "4 c_"
      ],
      [
        "0 c_",
        "0 c_2 c_4 c_7 c_9 seg_1 c_"
      ],
      [
        "5 c_",
        "0 c_2 c_4 c_7 c_9 seg_"
      ],
      [
        "8 seg_",
        "3 c_"
      ],
      [
        "2 c_",
        "0 c_2 c_4 c_7 c_9 seg_"
      ],
      [
        "4 c_",
        "0 c_2 c_4 c_7 c_9 seg_"
      ],
      [
        "7 c_10 c_11 seg_",
        "2 c_"
      ],
      [
        "8 seg_",
        "1 c_"
      ],
      [
        "3 c_",
        "0 c_2 c_4 c_7 c_9 seg_"
      ],
      [
        "8 c_11 seg_",
        "1"
      ],
      [
        "0 c_2 c_4 c_5 c_",
        "8 c_9 c_11 seg_"
      ],
      [
        "6 c_",
        "0 c_2 c_4 c_7 c_9 seg_7 c_"
      ],
      [
        "7 c_9 c_11 seg_",
        "2 c_"
      ],
      [
        "8 seg_",
        "2 c_"
      ],
      [
        "8 seg_",
        "7 c_"
      ],
      [
        "0 c_2 c_4 c_7 c_9 seg_",
        "0 c_0 c_2 c_4 c_7 c_9 seg_1 c_"
      ],
      [
        "0 c_2 c_4 c_7 c_9 seg_",
        "2 c_0 c_2 c_4 c_7 c_9 seg_"
      ],
      [
        "0 c_3 c_5 c_8 c_10 seg_",
        "1 c_"
      ],
      [
        "4 c_0 c_2 c_4 c_7 c_9 seg_",
        "5 c_0 c_2 c_4 c_7 c_9 seg_"
      ],
      [
        "0 c_2 c_4 c_5 c_7 c_11 seg_",
        "1 c_"
      ],
      [
        "6 c_",
        "0 c_2 c_4 c_7 c_11 seg_"
      ],
      [
        "6 c_11 seg_",
        "1"
      ],
      [
        "3 c_",
        "0 c_2 c_4 c_7 c_11 seg_"
      ],
      [
        "7 c_",
        "0 c_2 c_4 c_7 c_11 seg_"
      ],
      [
        "0 c_1 c_2 c_",
        "5 c_6 c_"
      ],
      [
        "2 c_",
        "0 c_2 c_4 c_7 c_11 seg_"
      ],
      [
        "0 c_",
        "0 c_2 c_4 c_7 c_11 seg_1 c_"
      ],
      [
        "5 c_",
        "0 c_2 c_4 c_7 c_11 seg_"
      ],
      [
        "3 c_0 c_2 c_3 c_5 c_7 c_8 c_10 seg_4 c_0 c_2 c_3 c_5 c_7 c_8 c_10 seg_5 c_0 c_2 c_3 c_5 c_7 c_8 c_10 seg_6 c_0 c_2 c_3 c_5 c_7 c_8 c_10 seg_7 c_0 c_2 c_3 c_5 c_7 c_8 c_10 seg_0 c_0 c_2 c_3 c_5 c_7 c_8 c_10 seg_1 c_0 c_2 c_3 c_5 c_7 c_8 c_10 seg_2 c_0 c_2 c_3 c_5 c_7 c_8 c_10 seg_3 c_0 c_2 c_3 c_5 c_7 c_8 c_10 seg_4 c_0 c_2 c_3 c_5 c_7 c_8 c_10 seg_5 c_0 c_2 c_3 c_5 c_7 c_8 c_10 seg_6 c_0 c_2 c_3 c_5 c_7 c_8 c_10 seg_7 c_0 c_2 c_3 c_5 c_7 c_8 c_10 seg_0 c_0 c_2 c_3 c_5 c_7 c_8 c_10 seg_1 c_0 c_2 c_3 c_5 c_7 c_8 c_10 seg_2 c_0 c_2 c_3 c_5 c_7 c_8 c_10 seg_",
        "3 c_0 c_2 c_3 c_5 c_7 c_8 c_10 seg_4 c_0 c_2 c_3 c_5 c_7 c_8 c_10 seg_5 c_0 c_2 c_3 c_5 c_7 c_8 c_10 seg_6 c_0 c_2 c_3 c_5 c_7 c_8 c_10 seg_7 c_0 c_2 c_3 c_5 c_7 c_8 c_10 seg_0 c_0 c_2 c_3 c_5 c_7 c_8 c_10 seg_1 c_0 c_2 c_3 c_5 c_7 c_8 c_10 seg_2 c_0 c_2 c_3 c_5 c_7 c_8 c_10 seg_3 c_0 c_2 c_3 c_5 c_7 c_8 c_10 seg_4 c_0 c_2 c_3 c_5 c_7 c_8 c_10 seg_5 c_0 c_2 c_3 c_5 c_7 c_8 c_10 seg_6 c_0 c_2 c_3 c_5 c_7 c_8 c_10 seg_7 c_0 c_2 c_3 c_5 c_7 c_8 c_10 seg_0 c_0 c_2 c_3 c_5 c_7 c_8 c_10 seg_1 c_0 c_2 c_3 c_5 c_7 c_8 c_10 seg_2 c_0 c_2 c_3 c_5 c_7 c_8 c_10 seg_"
      ],
      [
        "4 c_",
        "0 c_2 c_4 c_7 c_11 seg_"
      ],
      [
        "0 c_2 c_4 c_7 c_9 seg_2 c_0 c_2 c_4 c_7 c_9 seg_",
        "3 c_0 c_2 c_4 c_7 c_9 seg_"
      ],
      [
        "2 c_3 c_5 c_",
        "6 c_10 seg_"
      ],
      [
        " c_1 c_2 c_4 c_6 c_",
        "7 c_10 c_11 seg_"
      ],
      [
        "6 c_0 c_2 c_4 c_7 c_9 seg_7 c_",
        "0 c_2 c_4 c_7 c_9 seg_0 c_0 c_2 c_4 c_7 c_9 seg_1 c_"
      ],
      [
        "7 seg_",
        "0 c_"
      ],
      [
        "0 c_2 c_5 c_9 c_10 seg_",
        "1 c_"
      ],
      [
        "4",
        " c_11 seg_"
      ],
      [
        "7 c_8 c_11 seg_",
        "0 c_"
      ],
      [
        "0 c_2 c_4 c_9 c_11 seg_",
        "1 c_"
      ],
      [
        "0 c_2 c_4 c_7 c_11 seg_",
        "2 c_0 c_2 c_4 c_7 c_11 seg_"
      ],
      [
        " c_1 c_2 c_",
        "3 c_5 c_"
      ],
      [
        "6 c_0 c_2 c_4 c_7 c_11 seg_",
        "7 c_0 c_2 c_4 c_7 c_11 seg_"
      ],
      [
        "0 c_3 c_",
        "4 c_6 c_"
      ],
      [
        "3 c_0 c_2 c_4 c_7 c_11 seg_",
        "4 c_0 c_2 c_4 c_7 c_11 seg_"
      ],
      [
        " c_1 c_2 c_4 c_",
        "6 c_10 c_11 seg_"
      ],
      [
        "7 c_",
        "0 c_2 c_4 c_5 c_7 c_11 seg_"
      ],
      [
        "0 c_",
        "0 c_2 c_4 c_5 c_7 c_11 seg_1 c_"
      ],
      [
        "0 c_2 c_4 c_7 c_9 seg_2 c_0 c_2 c_4 c_7 c_9 seg_3 c_0 c_2 c_4 c_7 c_9 seg_",
        "4 c_0 c_2 c_4 c_7 c_9 seg_5 c_0 c_2 c_4 c_7 c_9 seg_"
      ],
      [
        "6 c_",
        "0 c_2 c_4 c_5 c_7 c_11 seg_"
      ],
      [
        "0 c_4 c_5 c_7 c_9 c_10 seg_",
        "1 c_"
      ],
      [
        "4 c_",
        "0 c_2 c_4 c_5 c_7 c_11 seg_"
      ],
      [
        "5 c_",
        "0 c_2 c_4 c_5 c_7 c_11 seg_"
      ],
      [
        "2 c_",
        "0 c_2 c_4 c_5 c_7 c_11 seg_"
      ],
      [
        "8 seg_",
        "0 c_"
      ],
      [
        "3 c_",
        "0 c_2 c_4 c_5 c_7 c_11 seg_"
      ],
      [
        "0 c_0 c_2 c_4 c_7 c_11 seg_1 c_",
        "0 c_2 c_4 c_7 c_11 seg_2 c_0 c_2 c_4 c_7 c_11 seg_"
      ],
      [
        "0 c_1 c_",
        "6 c_"
      ],
      [
        "0 c_4 c_5 c_7 c_9 c_10 seg_",
        "3 c_"
      ],
      [
        "0 c_4 c_5 c_7 c_9 c_10 seg_",
        "4 c_"
      ],
      [
        "0 c_4 c_5 c_7 c_9 c_10 seg_",
        "5 c_"
      ],
      [
        "8 c_10 seg_",
        "1"
      ],
      [
        "3 c_0 c_2 c_4 c_7 c_11 seg_4 c_0 c_2 c_4 c_7 c_11 seg_",
        "5 c_0 c_2 c_4 c_7 c_11 seg_"
      ],
      [
        "0 c_4 c_5 c_7 c_9 c_10 seg_",
        "2 c_"
      ],
      [
        "0 c_4 c_5 c_7 c_9 c_10 seg_",
        "7 c_"
      ],
      [
        "0 c_4 c_5 c_7 c_9 c_10 seg_",
        "6 c_"
      ],
      [
        "7 c_0 c_2 c_4 c_5 c_7 c_11 seg_",
        "0 c_0 c_2 c_4 c_5 c_7 c_11 seg_1 c_"
      ],
      [
        "0 c_2 c_4 c_5 c_7 c_11 seg_",
        "2 c_0 c_2 c_4 c_5 c_7 c_11 seg_"
      ],
      [
        "4 c_0 c_2 c_4 c_5 c_7 c_11 seg_",
        "5 c_0 c_2 c_4 c_5 c_7 c_11 seg_"
      ],
      [
        "0 c_4 c_5 c_7 c_9 c_10 seg_",
        "0 c_"
      ],
      [
        "0 c_1 c_",
        "4 c_6 c_8 c_11 seg_"
      ],
      [
        "0 c_0 c_2 c_4 c_5 c_7 c_9 c_11 seg_1 c_0 c_2 c_4 c_5 c_7 c_9 c_11 seg_2 c_0 c_2 c_4 c_5 c_7 c_9 c_11 seg_3 c_0 c_2 c_4 c_5 c_7 c_9 c_11 seg_4 c_0 c_2 c_4 c_5 c_7 c_9 c_11 seg_5 c_0 c_2 c_4 c_5 c_7 c_9 c_11 seg_6 c_0 c_2 c_4 c_5 c_7 c_9 c_11 seg_7 c_0 c_2 c_4 c_5 c_7 c_9 c_11 seg_0 c_0 c_2 c_4 c_5 c_7 c_9 c_11 seg_1 c_0 c_2 c_4 c_5 c_7 c_9 c_11 seg_2 c_0 c_2 c_4 c_5 c_7 c_9 c_11 seg_3 c_0 c_2 c_4 c_5 c_7 c_9 c_11 seg_4 c_0 c_2 c_4 c_5 c_7 c_9 c_11 seg_5 c_0 c_2 c_4 c_5 c_7 c_9 c_11 seg_6 c_0 c_2 c_4 c_5 c_7 c_9 c_11 seg_7 c_0 c_2 c_4 c_5 c_7 c_9 c_11 seg_",
        "0 c_0 c_2 c_4 c_5 c_7 c_9 c_11 seg_1 c_0 c_2 c_4 c_5 c_7 c_9 c_11 seg_2 c_0 c_2 c_4 c_5 c_7 c_9 c_11 seg_3 c_0 c_2 c_4 c_5 c_7 c_9 c_11 seg_4 c_0 c_2 c_4 c_5 c_7 c_9 c_11 seg_5 c_0 c_2 c_4 c_5 c_7 c_9 c_11 seg_6 c_0 c_2 c_4 c_5 c_7 c_9 c_11 seg_7 c_0 c_2 c_4 c_5 c_7 c_9 c_11 seg_0 c_0 c_2 c_4 c_5 c_7 c_9 c_11 seg_1 c_0 c_2 c_4 c_5 c_7 c_9 c_11 seg_2 c_0 c_2 c_4 c_5 c_7 c_9 c_11 seg_3 c_0 c_2 c_4 c_5 c_7 c_9 c_11 seg_4 c_0 c_2 c_4 c_5 c_7 c_9 c_11 seg_5 c_0 c_2 c_4 c_5 c_7 c_9 c_11 seg_6 c_0 c_2 c_4 c_5 c_7 c_9 c_11 seg_7 c_0 c_2 c_4 c_5 c_7 c_9 c_11 seg_"
      ],
      [
        "2 c_4 c_7 c_9 c_11 seg_",
        "3 c_"
      ],
      [
        "0 c_4 c_5 c_7 c_9 c_10 seg_3 c_",
        "0 c_4 c_5 c_7 c_9 c_10 seg_4 c_"
      ],
      [
        "8 c_11 seg_",
        "3 c_"
      ],
      [
        "2 c_3 c_5 c_7 c_10 seg_",
        "3 c_"
      ],
      [
        "6 c_0 c_2 c_4 c_5 c_7 c_11 seg_",
        "7 c_0 c_2 c_4 c_5 c_7 c_11 seg_0 c_0 c_2 c_4 c_5 c_7 c_11 seg_1 c_"
      ],
      [
        "0 c_4 c_5 c_7 c_9 c_10 seg_5 c_",
        "0 c_4 c_5 c_7 c_9 c_10 seg_6 c_"
      ],
      [
        "0 c_4 c_5 c_7 c_9 c_10 seg_1 c_",
        "0 c_4 c_5 c_7 c_9 c_10 seg_2 c_"
      ],
      [
        "3 c_5 c_6 c_",
        "8 c_11 seg_"
      ],
      [
        "0 c_2 c_4 c_5 c_7 c_11 seg_2 c_0 c_2 c_4 c_5 c_7 c_11 seg_",
        "3 c_0 c_2 c_4 c_5 c_7 c_11 seg_"
      ],
      [
        "0 c_2 c_4 c_7 c_9 seg_2 c_0 c_2 c_4 c_7 c_9 seg_3 c_0 c_2 c_4 c_7 c_9 seg_4 c_0 c_2 c_4 c_7 c_9 seg_5 c_0 c_2 c_4 c_7 c_9 seg_",
        "6 c_0 c_2 c_4 c_7 c_9 seg_7 c_0 c_2 c_4 c_7 c_9 seg_0 c_0 c_2 c_4 c_7 c_9 seg_1 c_"
      ],
      [
        "0 c_4 c_5 c_7 c_9 seg_",
        "1 c_"
      ],
      [
        "2 c_3 c_",
        "4 c_5 c_"
      ],
      [
        "0 c_4 c_5 c_7 c_9 c_10 seg_7 c_",
        "0 c_4 c_5 c_7 c_9 c_10 seg_0 c_"
      ],
      [
        "0 c_1 c_2 c_",
        "3 c_5 c_"
      ],
      [
        "0 c_1 c_",
        "4 c_6 c_8 c_9 seg_"
      ],
      [
        "5 c_",
        "6 c_10 seg_"
      ],
      [
        " c_1 c_2 c_4 c_",
        "8 c_9 seg_"
      ],
      [
        "6 c_0 c_2 c_4 c_7 c_11 seg_7 c_0 c_2 c_4 c_7 c_11 seg_",
        "0 c_0 c_2 c_4 c_7 c_11 seg_1 c_0 c_2 c_4 c_7 c_11 seg_2 c_0 c_2 c_4 c_7 c_11 seg_"
      ],
      [
        "0 c_4 c_5 c_7 c_9 seg_",
        "3 c_"
      ],
      [
        "0 c_4 c_5 c_7 c_9 seg_",
        "7 c_"
      ],
      [
        "0 c_4 c_5 c_7 c_9 seg_",
        "2 c_"
      ],
      [
        "0 c_2 c_5 c_",
        "7 c_8 c_10 seg_"
      ],
      [
        "0 c_4 c_5 c_7 c_9 seg_",
        "5 c_"
      ],
      [
        "0 c_4 c_5 c_7 c_9 seg_",
        "0 c_"
      ],
      [
        "0 c_2 c_3 c_5 c_7 c_9 c_10 seg_3 c_0 c_2 c_3 c_5 c_7 c_9 c_10 seg_4 c_0 c_2 c_3 c_5 c_7 c_9 c_10 seg_5 c_0 c_2 c_3 c_5 c_7 c_9 c_10 seg_6 c_0 c_2 c_3 c_5 c_7 c_9 c_10 seg_7 c_0 c_2 c_3 c_5 c_7 c_9 c_10 seg_0 c_0 c_2 c_3 c_5 c_7 c_9 c_10 seg_1 c_0 c_2 c_3 c_5 c_7 c_9 c_10 seg_2 c_0 c_2 c_3 c_5 c_7 c_9 c_10 seg_3 c_0 c_2 c_3 c_5 c_7 c_9 c_10 seg_4 c_0 c_2 c_3 c_5 c_7 c_9 c_10 seg_5 c_0 c_2 c_3 c_5 c_7 c_9 c_10 seg_6 c_0 c_2 c_3 c_5 c_7 c_9 c_10 seg_7 c_0 c_2 c_3 c_5 c_7 c_9 c_10 seg_0 c_0 c_2 c_3 c_5 c_7 c_9 c_10 seg_1 c_0 c_2 c_3 c_5 c_7 c_9 c_10 seg_2 c_",
        "0 c_2 c_3 c_5 c_7 c_9 c_10 seg_3 c_0 c_2 c_3 c_5 c_7 c_9 c_10 seg_4 c_0 c_2 c_3 c_5 c_7 c_9 c_10 seg_5 c_0 c_2 c_3 c_5 c_7 c_9 c_10 seg_6 c_0 c_2 c_3 c_5 c_7 c_9 c_10 seg_7 c_0 c_2 c_3 c_5 c_7 c_9 c_10 seg_0 c_0 c_2 c_3 c_5 c_7 c_9 c_10 seg_1 c_0 c_2 c_3 c_5 c_7 c_9 c_10 seg_2 c_0 c_2 c_3 c_5 c_7 c_9 c_10 seg_3 c_0 c_2 c_3 c_5 c_7 c_9 c_10 seg_4 c_0 c_2 c_3 c_5 c_7 c_9 c_10 seg_5 c_0 c_2 c_3 c_5 c_7 c_9 c_10 seg_6 c_0 c_2 c_3 c_5 c_7 c_9 c_10 seg_7 c_0 c_2 c_3 c_5 c_7 c_9 c_10 seg_0 c_0 c_2 c_3 c_5 c_7 c_9 c_10 seg_1 c_0 c_2 c_3 c_5 c_7 c_9 c_10 seg_2 c_"
      ],
      [
        "0 c_4 c_5 c_7 c_9 seg_",
        "4 c_"
      ],
      [
        "0 c_1 c_3 c_4 c_6 c_8 c_11 seg_1 c_1 c_3 c_4 c_6 c_8 c_11 seg_2 c_1 c_3 c_4 c_6 c_8 c_11 seg_3 c_1 c_3 c_4 c_6 c_8 c_11 seg_4 c_1 c_3 c_4 c_6 c_8 c_11 seg_5 c_1 c_3 c_4 c_6 c_8 c_11 seg_6 c_1 c_3 c_4 c_6 c_8 c_11 seg_7 c_1 c_3 c_4 c_6 c_8 c_11 seg_0 c_1 c_3 c_4 c_6 c_8 c_11 seg_1 c_1 c_3 c_4 c_6 c_8 c_11 seg_2 c_1 c_3 c_4 c_6 c_8 c_11 seg_3 c_1 c_3 c_4 c_6 c_8 c_11 seg_4 c_1 c_3 c_4 c_6 c_8 c_11 seg_5 c_1 c_3 c_4 c_6 c_8 c_11 seg_6 c_1 c_3 c_4 c_6 c_8 c_11 seg_7 c_1 c_3 c_4 c_6 c_8 c_11 seg_",
        "0 c_1 c_3 c_4 c_6 c_8 c_11 seg_1 c_1 c_3 c_4 c_6 c_8 c_11 seg_2 c_1 c_3 c_4 c_6 c_8 c_11 seg_3 c_1 c_3 c_4 c_6 c_8 c_11 seg_4 c_1 c_3 c_4 c_6 c_8 c_11 seg_5 c_1 c_3 c_4 c_6 c_8 c_11 seg_6 c_1 c_3 c_4 c_6 c_8 c_11 seg_7 c_1 c_3 c_4 c_6 c_8 c_11 seg_0 c_1 c_3 c_4 c_6 c_8 c_11 seg_1 c_1 c_3 c_4 c_6 c_8 c_11 seg_2 c_1 c_3 c_4 c_6 c_8 c_11 seg_3 c_1 c_3 c_4 c_6 c_8 c_11 seg_4 c_1 c_3 c_4 c_6 c_8 c_11 seg_5 c_1 c_3 c_4 c_6 c_8 c_11 seg_6 c_1 c_3 c_4 c_6 c_8 c_11 seg_7 c_1 c_3 c_4 c_6 c_8 c_11 seg_"
      ],
      [
        "0 c_4 c_5 c_7 c_9 seg_",
        "6 c_"
      ],
      [
        "0 c_2 c_4 c_6 c_7 c_11 seg_",
        "1 c_"
      ],
      [
        "0 c_2 c_4 c_6 c_9 c_11 seg_",
        "1 c_"
      ],
      [
        "0 c_4 c_5 c_7 c_9 c_10 seg_1 c_0 c_4 c_5 c_7 c_9 c_10 seg_2 c_",
        "0 c_4 c_5 c_7 c_9 c_10 seg_3 c_0 c_4 c_5 c_7 c_9 c_10 seg_4 c_"
      ],
      [
        "8 c_11 seg_",
        "1 c_"
      ],
      [
        "0 c_2 c_4 c_5 c_7 c_11 seg_2 c_0 c_2 c_4 c_5 c_7 c_11 seg_3 c_0 c_2 c_4 c_5 c_7 c_11 seg_",
        "4 c_0 c_2 c_4 c_5 c_7 c_11 seg_5 c_0 c_2 c_4 c_5 c_7 c_11 seg_"
      ],
      [
        "0 c_1 c_",
        "4 c_6 c_"
      ],
      [
        "0 c_4 c_5 c_7 c_9 seg_0 c_",
        "0 c_4 c_5 c_7 c_9 seg_1 c_"
      ],
      [
        "0 c_4 c_5 c_7 c_9 c_10 seg_5 c_0 c_4 c_5 c_7 c_9 c_10 seg_6 c_",
        "0 c_4 c_5 c_7 c_9 c_10 seg_7 c_0 c_4 c_5 c_7 c_9 c_10 seg_0 c_"
      ],
      [
        " c_1 c_3 c_4 c_6 c_",
        "8 c_10 seg_"
      ],
      [
        "0 c_4 c_5 c_7 c_9 seg_2 c_",
        "0 c_4 c_5 c_7 c_9 seg_3 c_"
      ],
      [
        "0 c_2 c_5 c_7 c_10 seg_",
        "1 c_"
      ],
      [
        "0 c_2 c_3 c_5 c_9 c_10 seg_",
        "1 c_"
      ],
      [
        "4 c_",
        "9 seg_"
      ],
      [
        "0 c_4 c_5 c_7 c_9 seg_6 c_",
        "0 c_4 c_5 c_7 c_9 seg_7 c_"
      ],
      [
        "0 c_2 c_5 c_7 c_9 seg_",
        "1 c_"
      ],
      [
        "6",
        " c_1 c_2 c_4 c_6 c_7 c_9 seg_"
      ],
      [
        "0 c_4 c_5 c_7 c_9 seg_4 c_",
        "0 c_4 c_5 c_7 c_9 seg_5 c_"
      ],
      [
        "7",
        " c_1 c_2 c_4 c_6 c_7 c_9 seg_"
      ],
      [
        "2 c_3 c_",
        "4 c_6 c_8 c_9 c_11 seg_"
      ],
      [
        "2",
        " c_1 c_2 c_4 c_6 c_7 c_9 seg_"
      ]
    ]
  }
}